{
  "version": "1.0",
  "truncation": null,
  "padding": null,
  "added_tokens": [
    {
      "id": 0,
      "content": "<pad>",
      "single_word": false,
      "lstrip": false,
      "rstrip": false,
      "normalized": false,
      "special": true
    },
    {
      "id": 1,
      "content": "<eos>",
      "single_word": false,
      "lstrip": false,
      "rstrip": false,
      "normalized": false,
      "special": true
    },
    {
      "id": 2,
      "content": "<bos>",
      "single_word": false,
      "lstrip": false,
      "rstrip": false,
      "normalized": false,
      "special": true
    },
    {
      "id": 3,
      "content": "<unk>",
      "single_word": false,
      "lstrip": false,
      "rstrip": false,
      "normalized": false,
      "special": true
    },
    {
      "id": 4,
      "content": "<mask>",
      "single_word": false,
      "lstrip": false,
      "rstrip": false,
      "normalized": false,
      "special": false
    },
    {
      "id": 5,
      "content": "[multimodal]",
      "single_word": false,
      "lstrip": false,
      "rstrip": false,
      "normalized": false,
      "special": false
    },
    {
      "id": 6,
      "content": "<start_of_turn>",
      "single_word": false,
      "lstrip": false,
      "rstrip": false,
      "normalized": false,
      "special": true
    },
    {
      "id": 7,
      "content": "<end_of_turn>",
      "single_word": false,
      "lstrip": false,
      "rstrip": false,
      "normalized": false,
      "special": true
    },
    {
      "id": 8,
      "content": "\n",
      "single_word": false,
      "lstrip": false,
      "rstrip": false,
      "normalized": false,
      "special": false
    },
    {
      "id": 9,
      "content": "\n\n",
      "single_word": false,
      "lstrip": false,
      "rstrip": false,
      "normalized": false,
      "special": false
    },
    {
      "id": 10,
      "content": "\n\n\n",
      "single_word": false,
      "lstrip": false,
      "rstrip": false,
      "normalized": false,
      "special": false
    },
    {
      "id": 11,
      "content": "\n\n\n\n",
      "single_word": false,
      "lstrip": false,
      "rstrip": false,
      "normalized": false,
      "special": false
    },
    {
      "id": 12,
      "content": "\n\n\n\n\n",
      "single_word": false,
      "lstrip": false,
      "rstrip": false,
      "normalized": false,
      "special": false
    },
    {
      "id": 13,
      "content": "\n\n\n\n\n\n",
      "single_word": false,
      "lstrip": false,
      "rstrip": false,
      "normalized": false,
      "special": false
    },
    {
      "id": 14,
      "content": "\n\n\n\n\n\n\n",
      "single_word": false,
      "lstrip": false,
      "rstrip": false,
      "normalized": false,
      "special": false
    },
    {
      "id": 15,
      "content": "\n\n\n\n\n\n\n\n",
      "single_word": false,
      "lstrip": false,
      "rstrip": false,
      "normalized": false,
      "special": false
    },
    {
      "id": 16,
      "content": "\n\n\n\n\n\n\n\n\n",
      "single_word": false,
      "lstrip": false,
      "rstrip": false,
      "normalized": false,
      "special": false
    },
    {
      "id": 17,
      "content": "\n\n\n\n\n\n\n\n\n\n",
      "single_word": false,
      "lstrip": false,
      "rstrip": false,
      "normalized": false,
      "special": false
    },
    {
      "id": 18,
      "content": "\n\n\n\n\n\n\n\n\n\n\n",
      "single_word": false,
      "lstrip": false,
      "rstrip": false,
      "normalized": false,
      "special": false
    },
    {
      "id": 19,
      "content": "\n\n\n\n\n\n\n\n\n\n\n\n",
      "single_word": false,
      "lstrip": false,
      "rstrip": false,
      "normalized": false,
      "special": false
    },
    {
      "id": 20,
      "content": "\n\n\n\n\n\n\n\n\n\n\n\n\n",
      "single_word": false,
      "lstrip": false,
      "rstrip": false,
      "normalized": false,
      "special": false
    },
    {
      "id": 21,
      "content": "\n\n\n\n\n\n\n\n\n\n\n\n\n\n",
      "single_word": false,
      "lstrip": false,
      "rstrip": false,
      "normalized": false,
      "special": false
    },
    {
      "id": 22,
      "content": "\n\n\n\n\n\n\n\n\n\n\n\n\n\n\n",
      "single_word": false,
      "lstrip": false,
      "rstrip": false,
      "normalized": false,
      "special": false
    },
    {
      "id": 23,
      "content": "\n\n\n\n\n\n\n\n\n\n\n\n\n\n\n\n",
      "single_word": false,
      "lstrip": false,
      "rstrip": false,
      "normalized": false,
      "special": false
    },
    {
      "id": 24,
      "content": "\n\n\n\n\n\n\n\n\n\n\n\n\n\n\n\n\n",
      "single_word": false,
      "lstrip": false,
      "rstrip": false,
      "normalized": false,
      "special": false
    },
    {
      "id": 25,
      "content": "\n\n\n\n\n\n\n\n\n\n\n\n\n\n\n\n\n\n",
      "single_word": false,
      "lstrip": false,
      "rstrip": false,
      "normalized": false,
      "special": false
    },
    {
      "id": 26,
      "content": "\n\n\n\n\n\n\n\n\n\n\n\n\n\n\n\n\n\n\n",
      "single_word": false,
      "lstrip": false,
      "rstrip": false,
      "normalized": false,
      "special": false
    },
    {
      "id": 27,
      "content": "\n\n\n\n\n\n\n\n\n\n\n\n\n\n\n\n\n\n\n\n",
      "single_word": false,
      "lstrip": false,
      "rstrip": false,
      "normalized": false,
      "special": false
    },
    {
      "id": 28,
      "content": "\n\n\n\n\n\n\n\n\n\n\n\n\n\n\n\n\n\n\n\n\n",
      "single_word": false,
      "lstrip": false,
      "rstrip": false,
      "normalized": false,
      "special": false
    },
    {
      "id": 29,
      "content": "\n\n\n\n\n\n\n\n\n\n\n\n\n\n\n\n\n\n\n\n\n\n",
      "single_word": false,
      "lstrip": false,
      "rstrip": false,
      "normalized": false,
      "special": false
    },
    {
      "id": 30,
      "content": "\n\n\n\n\n\n\n\n\n\n\n\n\n\n\n\n\n\n\n\n\n\n\n",
      "single_word": false,
      "lstrip": false,
      "rstrip": false,
      "normalized": false,
      "special": false
    },
    {
      "id": 31,
      "content": "\n\n\n\n\n\n\n\n\n\n\n\n\n\n\n\n\n\n\n\n\n\n\n\n",
      "single_word": false,
      "lstrip": false,
      "rstrip": false,
      "normalized": false,
      "special": false
    },
    {
      "id": 32,
      "content": "\n\n\n\n\n\n\n\n\n\n\n\n\n\n\n\n\n\n\n\n\n\n\n\n\n",
      "single_word": false,
      "lstrip": false,
      "rstrip": false,
      "normalized": false,
      "special": false
    },
    {
      "id": 33,
      "content": "\n\n\n\n\n\n\n\n\n\n\n\n\n\n\n\n\n\n\n\n\n\n\n\n\n\n",
      "single_word": false,
      "lstrip": false,
      "rstrip": false,
      "normalized": false,
      "special": false
    },
    {
      "id": 34,
      "content": "\n\n\n\n\n\n\n\n\n\n\n\n\n\n\n\n\n\n\n\n\n\n\n\n\n\n\n",
      "single_word": false,
      "lstrip": false,
      "rstrip": false,
      "normalized": false,
      "special": false
    },
    {
      "id": 35,
      "content": "\n\n\n\n\n\n\n\n\n\n\n\n\n\n\n\n\n\n\n\n\n\n\n\n\n\n\n\n",
      "single_word": false,
      "lstrip": false,
      "rstrip": false,
      "normalized": false,
      "special": false
    },
    {
      "id": 36,
      "content": "\n\n\n\n\n\n\n\n\n\n\n\n\n\n\n\n\n\n\n\n\n\n\n\n\n\n\n\n\n",
      "single_word": false,
      "lstrip": false,
      "rstrip": false,
      "normalized": false,
      "special": false
    },
    {
      "id": 37,
      "content": "\n\n\n\n\n\n\n\n\n\n\n\n\n\n\n\n\n\n\n\n\n\n\n\n\n\n\n\n\n\n",
      "single_word": false,
      "lstrip": false,
      "rstrip": false,
      "normalized": false,
      "special": false
    },
    {
      "id": 38,
      "content": "\n\n\n\n\n\n\n\n\n\n\n\n\n\n\n\n\n\n\n\n\n\n\n\n\n\n\n\n\n\n\n",
      "single_word": false,
      "lstrip": false,
      "rstrip": false,
      "normalized": false,
      "special": false
    },
    {
      "id": 39,
      "content": "▁▁",
      "single_word": false,
      "lstrip": false,
      "rstrip": false,
      "normalized": false,
      "special": false
    },
    {
      "id": 40,
      "content": "▁▁▁",
      "single_word": false,
      "lstrip": false,
      "rstrip": false,
      "normalized": false,
      "special": false
    },
    {
      "id": 41,
      "content": "▁▁▁▁",
      "single_word": false,
      "lstrip": false,
      "rstrip": false,
      "normalized": false,
      "special": false
    },
    {
      "id": 42,
      "content": "▁▁▁▁▁",
      "single_word": false,
      "lstrip": false,
      "rstrip": false,
      "normalized": false,
      "special": false
    },
    {
      "id": 43,
      "content": "▁▁▁▁▁▁",
      "single_word": false,
      "lstrip": false,
      "rstrip": false,
      "normalized": false,
      "special": false
    },
    {
      "id": 44,
      "content": "▁▁▁▁▁▁▁",
      "single_word": false,
      "lstrip": false,
      "rstrip": false,
      "normalized": false,
      "special": false
    },
    {
      "id": 45,
      "content": "▁▁▁▁▁▁▁▁",
      "single_word": false,
      "lstrip": false,
      "rstrip": false,
      "normalized": false,
      "special": false
    },
    {
      "id": 46,
      "content": "▁▁▁▁▁▁▁▁▁",
      "single_word": false,
      "lstrip": false,
      "rstrip": false,
      "normalized": false,
      "special": false
    },
    {
      "id": 47,
      "content": "▁▁▁▁▁▁▁▁▁▁",
      "single_word": false,
      "lstrip": false,
      "rstrip": false,
      "normalized": false,
      "special": false
    },
    {
      "id": 48,
      "content": "▁▁▁▁▁▁▁▁▁▁▁",
      "single_word": false,
      "lstrip": false,
      "rstrip": false,
      "normalized": false,
      "special": false
    },
    {
      "id": 49,
      "content": "▁▁▁▁▁▁▁▁▁▁▁▁",
      "single_word": false,
      "lstrip": false,
      "rstrip": false,
      "normalized": false,
      "special": false
    },
    {
      "id": 50,
      "content": "▁▁▁▁▁▁▁▁▁▁▁▁▁",
      "single_word": false,
      "lstrip": false,
      "rstrip": false,
      "normalized": false,
      "special": false
    },
    {
      "id": 51,
      "content": "▁▁▁▁▁▁▁▁▁▁▁▁▁▁",
      "single_word": false,
      "lstrip": false,
      "rstrip": false,
      "normalized": false,
      "special": false
    },
    {
      "id": 52,
      "content": "▁▁▁▁▁▁▁▁▁▁▁▁▁▁▁",
      "single_word": false,
      "lstrip": false,
      "rstrip": false,
      "normalized": false,
      "special": false
    },
    {
      "id": 53,
      "content": "▁▁▁▁▁▁▁▁▁▁▁▁▁▁▁▁",
      "single_word": false,
      "lstrip": false,
      "rstrip": false,
      "normalized": false,
      "special": false
    },
    {
      "id": 54,
      "content": "▁▁▁▁▁▁▁▁▁▁▁▁▁▁▁▁▁",
      "single_word": false,
      "lstrip": false,
      "rstrip": false,
      "normalized": false,
      "special": false
    },
    {
      "id": 55,
      "content": "▁▁▁▁▁▁▁▁▁▁▁▁▁▁▁▁▁▁",
      "single_word": false,
      "lstrip": false,
      "rstrip": false,
      "normalized": false,
      "special": false
    },
    {
      "id": 56,
      "content": "▁▁▁▁▁▁▁▁▁▁▁▁▁▁▁▁▁▁▁",
      "single_word": false,
      "lstrip": false,
      "rstrip": false,
      "normalized": false,
      "special": false
    },
    {
      "id": 57,
      "content": "▁▁▁▁▁▁▁▁▁▁▁▁▁▁▁▁▁▁▁▁",
      "single_word": false,
      "lstrip": false,
      "rstrip": false,
      "normalized": false,
      "special": false
    },
    {
      "id": 58,
      "content": "▁▁▁▁▁▁▁▁▁▁▁▁▁▁▁▁▁▁▁▁▁",
      "single_word": false,
      "lstrip": false,
      "rstrip": false,
      "normalized": false,
      "special": false
    },
    {
      "id": 59,
      "content": "▁▁▁▁▁▁▁▁▁▁▁▁▁▁▁▁▁▁▁▁▁▁",
      "single_word": false,
      "lstrip": false,
      "rstrip": false,
      "normalized": false,
      "special": false
    },
    {
      "id": 60,
      "content": "▁▁▁▁▁▁▁▁▁▁▁▁▁▁▁▁▁▁▁▁▁▁▁",
      "single_word": false,
      "lstrip": false,
      "rstrip": false,
      "normalized": false,
      "special": false
    },
    {
      "id": 61,
      "content": "▁▁▁▁▁▁▁▁▁▁▁▁▁▁▁▁▁▁▁▁▁▁▁▁",
      "single_word": false,
      "lstrip": false,
      "rstrip": false,
      "normalized": false,
      "special": false
    },
    {
      "id": 62,
      "content": "▁▁▁▁▁▁▁▁▁▁▁▁▁▁▁▁▁▁▁▁▁▁▁▁▁",
      "single_word": false,
      "lstrip": false,
      "rstrip": false,
      "normalized": false,
      "special": false
    },
    {
      "id": 63,
      "content": "▁▁▁▁▁▁▁▁▁▁▁▁▁▁▁▁▁▁▁▁▁▁▁▁▁▁",
      "single_word": false,
      "lstrip": false,
      "rstrip": false,
      "normalized": false,
      "special": false
    },
    {
      "id": 64,
      "content": "▁▁▁▁▁▁▁▁▁▁▁▁▁▁▁▁▁▁▁▁▁▁▁▁▁▁▁",
      "single_word": false,
      "lstrip": false,
      "rstrip": false,
      "normalized": false,
      "special": false
    },
    {
      "id": 65,
      "content": "▁▁▁▁▁▁▁▁▁▁▁▁▁▁▁▁▁▁▁▁▁▁▁▁▁▁▁▁",
      "single_word": false,
      "lstrip": false,
      "rstrip": false,
      "normalized": false,
      "special": false
    },
    {
      "id": 66,
      "content": "▁▁▁▁▁▁▁▁▁▁▁▁▁▁▁▁▁▁▁▁▁▁▁▁▁▁▁▁▁",
      "single_word": false,
      "lstrip": false,
      "rstrip": false,
      "normalized": false,
      "special": false
    },
    {
      "id": 67,
      "content": "▁▁▁▁▁▁▁▁▁▁▁▁▁▁▁▁▁▁▁▁▁▁▁▁▁▁▁▁▁▁",
      "single_word": false,
      "lstrip": false,
      "rstrip": false,
      "normalized": false,
      "special": false
    },
    {
      "id": 68,
      "content": "▁▁▁▁▁▁▁▁▁▁▁▁▁▁▁▁▁▁▁▁▁▁▁▁▁▁▁▁▁▁▁",
      "single_word": false,
      "lstrip": false,
      "rstrip": false,
      "normalized": false,
      "special": false
    },
    {
      "id": 69,
      "content": "<table>",
      "single_word": false,
      "lstrip": false,
      "rstrip": false,
      "normalized": false,
      "special": false
    },
    {
      "id": 70,
      "content": "<caption>",
      "single_word": false,
      "lstrip": false,
      "rstrip": false,
      "normalized": false,
      "special": false
    },
    {
      "id": 71,
      "content": "<thead>",
      "single_word": false,
      "lstrip": false,
      "rstrip": false,
      "normalized": false,
      "special": false
    },
    {
      "id": 72,
      "content": "<tbody>",
      "single_word": false,
      "lstrip": false,
      "rstrip": false,
      "normalized": false,
      "special": false
    },
    {
      "id": 73,
      "content": "<tfoot>",
      "single_word": false,
      "lstrip": false,
      "rstrip": false,
      "normalized": false,
      "special": false
    },
    {
      "id": 74,
      "content": "<tr>",
      "single_word": false,
      "lstrip": false,
      "rstrip": false,
      "normalized": false,
      "special": false
    },
    {
      "id": 75,
      "content": "<th>",
      "single_word": false,
      "lstrip": false,
      "rstrip": false,
      "normalized": false,
      "special": false
    },
    {
      "id": 76,
      "content": "<td>",
      "single_word": false,
      "lstrip": false,
      "rstrip": false,
      "normalized": false,
      "special": false
    },
    {
      "id": 77,
      "content": "</table>",
      "single_word": false,
      "lstrip": false,
      "rstrip": false,
      "normalized": false,
      "special": false
    },
    {
      "id": 78,
      "content": "</caption>",
      "single_word": false,
      "lstrip": false,
      "rstrip": false,
      "normalized": false,
      "special": false
    },
    {
      "id": 79,
      "content": "</thead>",
      "single_word": false,
      "lstrip": false,
      "rstrip": false,
      "normalized": false,
      "special": false
    },
    {
      "id": 80,
      "content": "</tbody>",
      "single_word": false,
      "lstrip": false,
      "rstrip": false,
      "normalized": false,
      "special": false
    },
    {
      "id": 81,
      "content": "</tfoot>",
      "single_word": false,
      "lstrip": false,
      "rstrip": false,
      "normalized": false,
      "special": false
    },
    {
      "id": 82,
      "content": "</tr>",
      "single_word": false,
      "lstrip": false,
      "rstrip": false,
      "normalized": false,
      "special": false
    },
    {
      "id": 83,
      "content": "</th>",
      "single_word": false,
      "lstrip": false,
      "rstrip": false,
      "normalized": false,
      "special": false
    },
    {
      "id": 84,
      "content": "</td>",
      "single_word": false,
      "lstrip": false,
      "rstrip": false,
      "normalized": false,
      "special": false
    },
    {
      "id": 85,
      "content": "<h1>",
      "single_word": false,
      "lstrip": false,
      "rstrip": false,
      "normalized": false,
      "special": false
    },
    {
      "id": 86,
      "content": "<h2>",
      "single_word": false,
      "lstrip": false,
      "rstrip": false,
      "normalized": false,
      "special": false
    },
    {
      "id": 87,
      "content": "<h3>",
      "single_word": false,
      "lstrip": false,
      "rstrip": false,
      "normalized": false,
      "special": false
    },
    {
      "id": 88,
      "content": "<h4>",
      "single_word": false,
      "lstrip": false,
      "rstrip": false,
      "normalized": false,
      "special": false
    },
    {
      "id": 89,
      "content": "<h5>",
      "single_word": false,
      "lstrip": false,
      "rstrip": false,
      "normalized": false,
      "special": false
    },
    {
      "id": 90,
      "content": "<h6>",
      "single_word": false,
      "lstrip": false,
      "rstrip": false,
      "normalized": false,
      "special": false
    },
    {
      "id": 91,
      "content": "<blockquote>",
      "single_word": false,
      "lstrip": false,
      "rstrip": false,
      "normalized": false,
      "special": false
    },
    {
      "id": 92,
      "content": "</h1>",
      "single_word": false,
      "lstrip": false,
      "rstrip": false,
      "normalized": false,
      "special": false
    },
    {
      "id": 93,
      "content": "</h2>",
      "single_word": false,
      "lstrip": false,
      "rstrip": false,
      "normalized": false,
      "special": false
    },
    {
      "id": 94,
      "content": "</h3>",
      "single_word": false,
      "lstrip": false,
      "rstrip": false,
      "normalized": false,
      "special": false
    },
    {
      "id": 95,
      "content": "</h4>",
      "single_word": false,
      "lstrip": false,
      "rstrip": false,
      "normalized": false,
      "special": false
    },
    {
      "id": 96,
      "content": "</h5>",
      "single_word": false,
      "lstrip": false,
      "rstrip": false,
      "normalized": false,
      "special": false
    },
    {
      "id": 97,
      "content": "</h6>",
      "single_word": false,
      "lstrip": false,
      "rstrip": false,
      "normalized": false,
      "special": false
    },
    {
      "id": 98,
      "content": "</blockquote>",
      "single_word": false,
      "lstrip": false,
      "rstrip": false,
      "normalized": false,
      "special": false
    },
    {
      "id": 99,
      "content": "<strong>",
      "single_word": false,
      "lstrip": false,
      "rstrip": false,
      "normalized": false,
      "special": false
    },
    {
      "id": 100,
      "content": "<em>",
      "single_word": false,
      "lstrip": false,
      "rstrip": false,
      "normalized": false,
      "special": false
    },
    {
      "id": 101,
      "content": "<b>",
      "single_word": false,
      "lstrip": false,
      "rstrip": false,
      "normalized": false,
      "special": false
    },
    {
      "id": 102,
      "content": "<i>",
      "single_word": false,
      "lstrip": false,
      "rstrip": false,
      "normalized": false,
      "special": false
    },
    {
      "id": 103,
      "content": "<u>",
      "single_word": false,
      "lstrip": false,
      "rstrip": false,
      "normalized": false,
      "special": false
    },
    {
      "id": 104,
      "content": "<s>",
      "single_word": false,
      "lstrip": false,
      "rstrip": false,
      "normalized": false,
      "special": false
    },
    {
      "id": 105,
      "content": "<sub>",
      "single_word": false,
      "lstrip": false,
      "rstrip": false,
      "normalized": false,
      "special": false
    },
    {
      "id": 106,
      "content": "<sup>",
      "single_word": false,
      "lstrip": false,
      "rstrip": false,
      "normalized": false,
      "special": false
    },
    {
      "id": 107,
      "content": "<code>",
      "single_word": false,
      "lstrip": false,
      "rstrip": false,
      "normalized": false,
      "special": false
    },
    {
      "id": 108,
      "content": "</strong>",
      "single_word": false,
      "lstrip": false,
      "rstrip": false,
      "normalized": false,
      "special": false
    },
    {
      "id": 109,
      "content": "</em>",
      "single_word": false,
      "lstrip": false,
      "rstrip": false,
      "normalized": false,
      "special": false
    },
    {
      "id": 110,
      "content": "</b>",
      "single_word": false,
      "lstrip": false,
      "rstrip": false,
      "normalized": false,
      "special": false
    },
    {
      "id": 111,
      "content": "</i>",
      "single_word": false,
      "lstrip": false,
      "rstrip": false,
      "normalized": false,
      "special": false
    },
    {
      "id": 112,
      "content": "</u>",
      "single_word": false,
      "lstrip": false,
      "rstrip": false,
      "normalized": false,
      "special": false
    },
    {
      "id": 113,
      "content": "</s>",
      "single_word": false,
      "lstrip": false,
      "rstrip": false,
      "normalized": false,
      "special": false
    },
    {
      "id": 114,
      "content": "</sub>",
      "single_word": false,
      "lstrip": false,
      "rstrip": false,
      "normalized": false,
      "special": false
    },
    {
      "id": 115,
      "content": "</sup>",
      "single_word": false,
      "lstrip": false,
      "rstrip": false,
      "normalized": false,
      "special": false
    },
    {
      "id": 116,
      "content": "</code>",
      "single_word": false,
      "lstrip": false,
      "rstrip": false,
      "normalized": false,
      "special": false
    },
    {
      "id": 117,
      "content": "<a>",
      "single_word": false,
      "lstrip": false,
      "rstrip": false,
      "normalized": false,
      "special": false
    },
    {
      "id": 118,
      "content": "<html>",
      "single_word": false,
      "lstrip": false,
      "rstrip": false,
      "normalized": false,
      "special": false
    },
    {
      "id": 119,
      "content": "<body>",
      "single_word": false,
      "lstrip": false,
      "rstrip": false,
      "normalized": false,
      "special": false
    },
    {
      "id": 120,
      "content": "<img>",
      "single_word": false,
      "lstrip": false,
      "rstrip": false,
      "normalized": false,
      "special": false
    },
    {
      "id": 121,
      "content": "<span>",
      "single_word": false,
      "lstrip": false,
      "rstrip": false,
      "normalized": false,
      "special": false
    },
    {
      "id": 122,
      "content": "<bbox>",
      "single_word": false,
      "lstrip": false,
      "rstrip": false,
      "normalized": false,
      "special": false
    },
    {
      "id": 123,
      "content": "<ul>",
      "single_word": false,
      "lstrip": false,
      "rstrip": false,
      "normalized": false,
      "special": false
    },
    {
      "id": 124,
      "content": "<li>",
      "single_word": false,
      "lstrip": false,
      "rstrip": false,
      "normalized": false,
      "special": false
    },
    {
      "id": 125,
      "content": "<div>",
      "single_word": false,
      "lstrip": false,
      "rstrip": false,
      "normalized": false,
      "special": false
    },
    {
      "id": 126,
      "content": "<iframe>",
      "single_word": false,
      "lstrip": false,
      "rstrip": false,
      "normalized": false,
      "special": false
    },
    {
      "id": 127,
      "content": "<footer>",
      "single_word": false,
      "lstrip": false,
      "rstrip": false,
      "normalized": false,
      "special": false
    },
    {
      "id": 128,
      "content": "</a>",
      "single_word": false,
      "lstrip": false,
      "rstrip": false,
      "normalized": false,
      "special": false
    },
    {
      "id": 129,
      "content": "</html>",
      "single_word": false,
      "lstrip": false,
      "rstrip": false,
      "normalized": false,
      "special": false
    },
    {
      "id": 130,
      "content": "</body>",
      "single_word": false,
      "lstrip": false,
      "rstrip": false,
      "normalized": false,
      "special": false
    },
    {
      "id": 131,
      "content": "</img>",
      "single_word": false,
      "lstrip": false,
      "rstrip": false,
      "normalized": false,
      "special": false
    },
    {
      "id": 132,
      "content": "</span>",
      "single_word": false,
      "lstrip": false,
      "rstrip": false,
      "normalized": false,
      "special": false
    },
    {
      "id": 133,
      "content": "</bbox>",
      "single_word": false,
      "lstrip": false,
      "rstrip": false,
      "normalized": false,
      "special": false
    },
    {
      "id": 134,
      "content": "</ul>",
      "single_word": false,
      "lstrip": false,
      "rstrip": false,
      "normalized": false,
      "special": false
    },
    {
      "id": 135,
      "content": "</li>",
      "single_word": false,
      "lstrip": false,
      "rstrip": false,
      "normalized": false,
      "special": false
    },
    {
      "id": 136,
      "content": "</div>",
      "single_word": false,
      "lstrip": false,
      "rstrip": false,
      "normalized": false,
      "special": false
    },
    {
      "id": 137,
      "content": "</iframe>",
      "single_word": false,
      "lstrip": false,
      "rstrip": false,
      "normalized": false,
      "special": false
    },
    {
      "id": 138,
      "content": "</footer>",
      "single_word": false,
      "lstrip": false,
      "rstrip": false,
      "normalized": false,
      "special": false
    },
    {
      "id": 38618,
      "content": "\t",
      "single_word": false,
      "lstrip": false,
      "rstrip": false,
      "normalized": false,
      "special": false
    },
    {
      "id": 38619,
      "content": "\t\t",
      "single_word": false,
      "lstrip": false,
      "rstrip": false,
      "normalized": false,
      "special": false
    },
    {
      "id": 38620,
      "content": "\t\t\t",
      "single_word": false,
      "lstrip": false,
      "rstrip": false,
      "normalized": false,
      "special": false
    },
    {
      "id": 38621,
      "content": "\t\t\t\t",
      "single_word": false,
      "lstrip": false,
      "rstrip": false,
      "normalized": false,
      "special": false
    },
    {
      "id": 38622,
      "content": "\t\t\t\t\t",
      "single_word": false,
      "lstrip": false,
      "rstrip": false,
      "normalized": false,
      "special": false
    },
    {
      "id": 38623,
      "content": "\t\t\t\t\t\t",
      "single_word": false,
      "lstrip": false,
      "rstrip": false,
      "normalized": false,
      "special": false
    },
    {
      "id": 38624,
      "content": "\t\t\t\t\t\t\t",
      "single_word": false,
      "lstrip": false,
      "rstrip": false,
      "normalized": false,
      "special": false
    },
    {
      "id": 38625,
      "content": "\t\t\t\t\t\t\t\t",
      "single_word": false,
      "lstrip": false,
      "rstrip": false,
      "normalized": false,
      "special": false
    },
    {
      "id": 38626,
      "content": "\t\t\t\t\t\t\t\t\t",
      "single_word": false,
      "lstrip": false,
      "rstrip": false,
      "normalized": false,
      "special": false
    },
    {
      "id": 38627,
      "content": "\t\t\t\t\t\t\t\t\t\t",
      "single_word": false,
      "lstrip": false,
      "rstrip": false,
      "normalized": false,
      "special": false
    },
    {
      "id": 38628,
      "content": "\t\t\t\t\t\t\t\t\t\t\t",
      "single_word": false,
      "lstrip": false,
      "rstrip": false,
      "normalized": false,
      "special": false
    },
    {
      "id": 38629,
      "content": "\t\t\t\t\t\t\t\t\t\t\t\t",
      "single_word": false,
      "lstrip": false,
      "rstrip": false,
      "normalized": false,
      "special": false
    },
    {
      "id": 38630,
      "content": "\t\t\t\t\t\t\t\t\t\t\t\t\t",
      "single_word": false,
      "lstrip": false,
      "rstrip": false,
      "normalized": false,
      "special": false
    },
    {
      "id": 38631,
      "content": "\t\t\t\t\t\t\t\t\t\t\t\t\t\t",
      "single_word": false,
      "lstrip": false,
      "rstrip": false,
      "normalized": false,
      "special": false
    },
    {
      "id": 38632,
      "content": "\t\t\t\t\t\t\t\t\t\t\t\t\t\t\t",
      "single_word": false,
      "lstrip": false,
      "rstrip": false,
      "normalized": false,
      "special": false
    },
    {
      "id": 38633,
      "content": "\t\t\t\t\t\t\t\t\t\t\t\t\t\t\t\t",
      "single_word": false,
      "lstrip": false,
      "rstrip": false,
      "normalized": false,
      "special": false
    },
    {
      "id": 38634,
      "content": "\t\t\t\t\t\t\t\t\t\t\t\t\t\t\t\t\t",
      "single_word": false,
      "lstrip": false,
      "rstrip": false,
      "normalized": false,
      "special": false
    },
    {
      "id": 38635,
      "content": "\t\t\t\t\t\t\t\t\t\t\t\t\t\t\t\t\t\t",
      "single_word": false,
      "lstrip": false,
      "rstrip": false,
      "normalized": false,
      "special": false
    },
    {
      "id": 38636,
      "content": "\t\t\t\t\t\t\t\t\t\t\t\t\t\t\t\t\t\t\t",
      "single_word": false,
      "lstrip": false,
      "rstrip": false,
      "normalized": false,
      "special": false
    },
    {
      "id": 38637,
      "content": "\t\t\t\t\t\t\t\t\t\t\t\t\t\t\t\t\t\t\t\t",
      "single_word": false,
      "lstrip": false,
      "rstrip": false,
      "normalized": false,
      "special": false
    },
    {
      "id": 38638,
      "content": "\t\t\t\t\t\t\t\t\t\t\t\t\t\t\t\t\t\t\t\t\t",
      "single_word": false,
      "lstrip": false,
      "rstrip": false,
      "normalized": false,
      "special": false
    },
    {
      "id": 38639,
      "content": "\t\t\t\t\t\t\t\t\t\t\t\t\t\t\t\t\t\t\t\t\t\t",
      "single_word": false,
      "lstrip": false,
      "rstrip": false,
      "normalized": false,
      "special": false
    },
    {
      "id": 38640,
      "content": "\t\t\t\t\t\t\t\t\t\t\t\t\t\t\t\t\t\t\t\t\t\t\t",
      "single_word": false,
      "lstrip": false,
      "rstrip": false,
      "normalized": false,
      "special": false
    },
    {
      "id": 38641,
      "content": "\t\t\t\t\t\t\t\t\t\t\t\t\t\t\t\t\t\t\t\t\t\t\t\t",
      "single_word": false,
      "lstrip": false,
      "rstrip": false,
      "normalized": false,
      "special": false
    },
    {
      "id": 38642,
      "content": "\t\t\t\t\t\t\t\t\t\t\t\t\t\t\t\t\t\t\t\t\t\t\t\t\t",
      "single_word": false,
      "lstrip": false,
      "rstrip": false,
      "normalized": false,
      "special": false
    },
    {
      "id": 38643,
      "content": "\t\t\t\t\t\t\t\t\t\t\t\t\t\t\t\t\t\t\t\t\t\t\t\t\t\t",
      "single_word": false,
      "lstrip": false,
      "rstrip": false,
      "normalized": false,
      "special": false
    },
    {
      "id": 38644,
      "content": "\t\t\t\t\t\t\t\t\t\t\t\t\t\t\t\t\t\t\t\t\t\t\t\t\t\t\t",
      "single_word": false,
      "lstrip": false,
      "rstrip": false,
      "normalized": false,
      "special": false
    },
    {
      "id": 38645,
      "content": "\t\t\t\t\t\t\t\t\t\t\t\t\t\t\t\t\t\t\t\t\t\t\t\t\t\t\t\t",
      "single_word": false,
      "lstrip": false,
      "rstrip": false,
      "normalized": false,
      "special": false
    },
    {
      "id": 38646,
      "content": "\t\t\t\t\t\t\t\t\t\t\t\t\t\t\t\t\t\t\t\t\t\t\t\t\t\t\t\t\t",
      "single_word": false,
      "lstrip": false,
      "rstrip": false,
      "normalized": false,
      "special": false
    },
    {
      "id": 38647,
      "content": "\t\t\t\t\t\t\t\t\t\t\t\t\t\t\t\t\t\t\t\t\t\t\t\t\t\t\t\t\t\t",
      "single_word": false,
      "lstrip": false,
      "rstrip": false,
      "normalized": false,
      "special": false
    },
    {
      "id": 38648,
      "content": "\t\t\t\t\t\t\t\t\t\t\t\t\t\t\t\t\t\t\t\t\t\t\t\t\t\t\t\t\t\t\t",
      "single_word": false,
      "lstrip": false,
      "rstrip": false,
      "normalized": false,
      "special": false
    },
    {
      "id": 38649,
      "content": "<start_of_image>",
      "single_word": false,
      "lstrip": false,
      "rstrip": false,
      "normalized": false,
      "special": false
    },
    {
      "id": 38650,
      "content": "<end_of_image>",
      "single_word": false,
      "lstrip": false,
      "rstrip": false,
      "normalized": false,
      "special": false
    }
  ],
  "normalizer": {
    "type": "Replace",
    "pattern": {
      "String": " "
    },
    "content": "▁"
  },
  "pre_tokenizer": {
    "type": "Split",
    "pattern": {
      "String": " "
    },
    "behavior": "MergedWithPrevious",
    "invert": false
  },
  "post_processor": {
    "type": "TemplateProcessing",
    "single": [
      {
        "SpecialToken": {
          "id": "<bos>",
          "type_id": 0
        }
      },
      {
        "Sequence": {
          "id": "A",
          "type_id": 0
        }
      }
    ],
    "pair": [
      {
        "SpecialToken": {
          "id": "<bos>",
          "type_id": 0
        }
      },
      {
        "Sequence": {
          "id": "A",
          "type_id": 0
        }
      },
      {
        "SpecialToken": {
          "id": "<bos>",
          "type_id": 1
        }
      },
      {
        "Sequence": {
          "id": "B",
          "type_id": 1
        }
      }
    ],
    "special_tokens": {
      "<bos>": {
        "id": "<bos>",
        "ids": [
          2
        ],
        "tokens": [
          "<bos>"
        ]
      }
    }
  },
  "decoder": {
    "type": "Sequence",
    "decoders": [
      {
        "type": "Replace",
        "pattern": {
          "String": "▁"
        },
        "content": " "
      },
      {
        "type": "ByteFallback"
      },
      {
        "type": "Fuse"
      }
    ]
  },
  "model": {
    "type": "BPE",
    "dropout": null,
    "unk_token": "<unk>",
    "continuing_subword_prefix": null,
    "end_of_word_suffix": null,
    "fuse_unk": true,
    "byte_fallback": true,
    "ignore_merges": false,
    "vocab": {
      "<pad>": 0,
      "<eos>": 1,
      "<bos>": 2,
      "<unk>": 3,
      "<mask>": 4,
      "[multimodal]": 5,
      "<start_of_turn>": 6,
      "<end_of_turn>": 7,
      "\n": 8,
      "\n\n": 9,
      "\n\n\n": 10,
      "\n\n\n\n": 11,
      "\n\n\n\n\n": 12,
      "\n\n\n\n\n\n": 13,
      "\n\n\n\n\n\n\n": 14,
      "\n\n\n\n\n\n\n\n": 15,
      "\n\n\n\n\n\n\n\n\n": 16,
      "\n\n\n\n\n\n\n\n\n\n": 17,
      "\n\n\n\n\n\n\n\n\n\n\n": 18,
      "\n\n\n\n\n\n\n\n\n\n\n\n": 19,
      "\n\n\n\n\n\n\n\n\n\n\n\n\n": 20,
      "\n\n\n\n\n\n\n\n\n\n\n\n\n\n": 21,
      "\n\n\n\n\n\n\n\n\n\n\n\n\n\n\n": 22,
      "\n\n\n\n\n\n\n\n\n\n\n\n\n\n\n\n": 23,
      "\n\n\n\n\n\n\n\n\n\n\n\n\n\n\n\n\n": 24,
      "\n\n\n\n\n\n\n\n\n\n\n\n\n\n\n\n\n\n": 25,
      "\n\n\n\n\n\n\n\n\n\n\n\n\n\n\n\n\n\n\n": 26,
      "\n\n\n\n\n\n\n\n\n\n\n\n\n\n\n\n\n\n\n\n": 27,
      "\n\n\n\n\n\n\n\n\n\n\n\n\n\n\n\n\n\n\n\n\n": 28,
      "\n\n\n\n\n\n\n\n\n\n\n\n\n\n\n\n\n\n\n\n\n\n": 29,
      "\n\n\n\n\n\n\n\n\n\n\n\n\n\n\n\n\n\n\n\n\n\n\n": 30,
      "\n\n\n\n\n\n\n\n\n\n\n\n\n\n\n\n\n\n\n\n\n\n\n\n": 31,
      "\n\n\n\n\n\n\n\n\n\n\n\n\n\n\n\n\n\n\n\n\n\n\n\n\n": 32,
      "\n\n\n\n\n\n\n\n\n\n\n\n\n\n\n\n\n\n\n\n\n\n\n\n\n\n": 33,
      "\n\n\n\n\n\n\n\n\n\n\n\n\n\n\n\n\n\n\n\n\n\n\n\n\n\n\n": 34,
      "\n\n\n\n\n\n\n\n\n\n\n\n\n\n\n\n\n\n\n\n\n\n\n\n\n\n\n\n": 35,
      "\n\n\n\n\n\n\n\n\n\n\n\n\n\n\n\n\n\n\n\n\n\n\n\n\n\n\n\n\n": 36,
      "\n\n\n\n\n\n\n\n\n\n\n\n\n\n\n\n\n\n\n\n\n\n\n\n\n\n\n\n\n\n": 37,
      "\n\n\n\n\n\n\n\n\n\n\n\n\n\n\n\n\n\n\n\n\n\n\n\n\n\n\n\n\n\n\n": 38,
      "▁▁": 39,
      "▁▁▁": 40,
      "▁▁▁▁": 41,
      "▁▁▁▁▁": 42,
      "▁▁▁▁▁▁": 43,
      "▁▁▁▁▁▁▁": 44,
      "▁▁▁▁▁▁▁▁": 45,
      "▁▁▁▁▁▁▁▁▁": 46,
      "▁▁▁▁▁▁▁▁▁▁": 47,
      "▁▁▁▁▁▁▁▁▁▁▁": 48,
      "▁▁▁▁▁▁▁▁▁▁▁▁": 49,
      "▁▁▁▁▁▁▁▁▁▁▁▁▁": 50,
      "▁▁▁▁▁▁▁▁▁▁▁▁▁▁": 51,
      "▁▁▁▁▁▁▁▁▁▁▁▁▁▁▁": 52,
      "▁▁▁▁▁▁▁▁▁▁▁▁▁▁▁▁": 53,
      "▁▁▁▁▁▁▁▁▁▁▁▁▁▁▁▁▁": 54,
      "▁▁▁▁▁▁▁▁▁▁▁▁▁▁▁▁▁▁": 55,
      "▁▁▁▁▁▁▁▁▁▁▁▁▁▁▁▁▁▁▁": 56,
      "▁▁▁▁▁▁▁▁▁▁▁▁▁▁▁▁▁▁▁▁": 57,
      "▁▁▁▁▁▁▁▁▁▁▁▁▁▁▁▁▁▁▁▁▁": 58,
      "▁▁▁▁▁▁▁▁▁▁▁▁▁▁▁▁▁▁▁▁▁▁": 59,
      "▁▁▁▁▁▁▁▁▁▁▁▁▁▁▁▁▁▁▁▁▁▁▁": 60,
      "▁▁▁▁▁▁▁▁▁▁▁▁▁▁▁▁▁▁▁▁▁▁▁▁": 61,
      "▁▁▁▁▁▁▁▁▁▁▁▁▁▁▁▁▁▁▁▁▁▁▁▁▁": 62,
      "▁▁▁▁▁▁▁▁▁▁▁▁▁▁▁▁▁▁▁▁▁▁▁▁▁▁": 63,
      "▁▁▁▁▁▁▁▁▁▁▁▁▁▁▁▁▁▁▁▁▁▁▁▁▁▁▁": 64,
      "▁▁▁▁▁▁▁▁▁▁▁▁▁▁▁▁▁▁▁▁▁▁▁▁▁▁▁▁": 65,
      "▁▁▁▁▁▁▁▁▁▁▁▁▁▁▁▁▁▁▁▁▁▁▁▁▁▁▁▁▁": 66,
      "▁▁▁▁▁▁▁▁▁▁▁▁▁▁▁▁▁▁▁▁▁▁▁▁▁▁▁▁▁▁": 67,
      "▁▁▁▁▁▁▁▁▁▁▁▁▁▁▁▁▁▁▁▁▁▁▁▁▁▁▁▁▁▁▁": 68,
      "<table>": 69,
      "<caption>": 70,
      "<thead>": 71,
      "<tbody>": 72,
      "<tfoot>": 73,
      "<tr>": 74,
      "<th>": 75,
      "<td>": 76,
      "</table>": 77,
      "</caption>": 78,
      "</thead>": 79,
      "</tbody>": 80,
      "</tfoot>": 81,
      "</tr>": 82,
      "</th>": 83,
      "</td>": 84,
      "<h1>": 85,
      "<h2>": 86,
      "<h3>": 87,
      "<h4>": 88,
      "<h5>": 89,
      "<h6>": 90,
      "<blockquote>": 91,
      "</h1>": 92,
      "</h2>": 93,
      "</h3>": 94,
      "</h4>": 95,
      "</h5>": 96,
      "</h6>": 97,
      "</blockquote>": 98,
      "<strong>": 99,
      "<em>": 100,
      "<b>": 101,
      "<i>": 102,
      "<u>": 103,
      "<s>": 104,
      "<sub>": 105,
      "<sup>": 106,
      "<code>": 107,
      "</strong>": 108,
      "</em>": 109,
      "</b>": 110,
      "</i>": 111,
      "</u>": 112,
      "</s>": 113,
      "</sub>": 114,
      "</sup>": 115,
      "</code>": 116,
      "<a>": 117,
      "<html>": 118,
      "<body>": 119,
      "<img>": 120,
      "<span>": 121,
      "<bbox>": 122,
      "<ul>": 123,
      "<li>": 124,
      "<div>": 125,
      "<iframe>": 126,
      "<footer>": 127,
      "</a>": 128,
      "</html>": 129,
      "</body>": 130,
      "</img>": 131,
      "</span>": 132,
      "</bbox>": 133,
      "</ul>": 134,
      "</li>": 135,
      "</div>": 136,
      "</iframe>": 137,
      "</footer>": 138,
      "<0x00>": 139,
      "<0x01>": 140,
      "<0x02>": 141,
      "<0x03>": 142,
      "<0x04>": 143,
      "<0x05>": 144,
      "<0x06>": 145,
      "<0x07>": 146,
      "<0x08>": 147,
      "<0x09>": 148,
      "<0x0A>": 149,
      "<0x0B>": 150,
      "<0x0C>": 151,
      "<0x0D>": 152,
      "<0x0E>": 153,
      "<0x0F>": 154,
      "<0x10>": 155,
      "<0x11>": 156,
      "<0x12>": 157,
      "<0x13>": 158,
      "<0x14>": 159,
      "<0x15>": 160,
      "<0x16>": 161,
      "<0x17>": 162,
      "<0x18>": 163,
      "<0x19>": 164,
      "<0x1A>": 165,
      "<0x1B>": 166,
      "<0x1C>": 167,
      "<0x1D>": 168,
      "<0x1E>": 169,
      "<0x1F>": 170,
      "<0x20>": 171,
      "<0x21>": 172,
      "<0x22>": 173,
      "<0x23>": 174,
      "<0x24>": 175,
      "<0x25>": 176,
      "<0x26>": 177,
      "<0x27>": 178,
      "<0x28>": 179,
      "<0x29>": 180,
      "<0x2A>": 181,
      "<0x2B>": 182,
      "<0x2C>": 183,
      "<0x2D>": 184,
      "<0x2E>": 185,
      "<0x2F>": 186,
      "<0x30>": 187,
      "<0x31>": 188,
      "<0x32>": 189,
      "<0x33>": 190,
      "<0x34>": 191,
      "<0x35>": 192,
      "<0x36>": 193,
      "<0x37>": 194,
      "<0x38>": 195,
      "<0x39>": 196,
      "<0x3A>": 197,
      "<0x3B>": 198,
      "<0x3C>": 199,
      "<0x3D>": 200,
      "<0x3E>": 201,
      "<0x3F>": 202,
      "<0x40>": 203,
      "<0x41>": 204,
      "<0x42>": 205,
      "<0x43>": 206,
      "<0x44>": 207,
      "<0x45>": 208,
      "<0x46>": 209,
      "<0x47>": 210,
      "<0x48>": 211,
      "<0x49>": 212,
      "<0x4A>": 213,
      "<0x4B>": 214,
      "<0x4C>": 215,
      "<0x4D>": 216,
      "<0x4E>": 217,
      "<0x4F>": 218,
      "<0x50>": 219,
      "<0x51>": 220,
      "<0x52>": 221,
      "<0x53>": 222,
      "<0x54>": 223,
      "<0x55>": 224,
      "<0x56>": 225,
      "<0x57>": 226,
      "<0x58>": 227,
      "<0x59>": 228,
      "<0x5A>": 229,
      "<0x5B>": 230,
      "<0x5C>": 231,
      "<0x5D>": 232,
      "<0x5E>": 233,
      "<0x5F>": 234,
      "<0x60>": 235,
      "<0x61>": 236,
      "<0x62>": 237,
      "<0x63>": 238,
      "<0x64>": 239,
      "<0x65>": 240,
      "<0x66>": 241,
      "<0x67>": 242,
      "<0x68>": 243,
      "<0x69>": 244,
      "<0x6A>": 245,
      "<0x6B>": 246,
      "<0x6C>": 247,
      "<0x6D>": 248,
      "<0x6E>": 249,
      "<0x6F>": 250,
      "<0x70>": 251,
      "<0x71>": 252,
      "<0x72>": 253,
      "<0x73>": 254,
      "<0x74>": 255,
      "<0x75>": 256,
      "<0x76>": 257,
      "<0x77>": 258,
      "<0x78>": 259,
      "<0x79>": 260,
      "<0x7A>": 261,
      "<0x7B>": 262,
      "<0x7C>": 263,
      "<0x7D>": 264,
      "<0x7E>": 265,
      "<0x7F>": 266,
      "<0x80>": 267,
      "<0x81>": 268,
      "<0x82>": 269,
      "<0x83>": 270,
      "<0x84>": 271,
      "<0x85>": 272,
      "<0x86>": 273,
      "<0x87>": 274,
      "<0x88>": 275,
      "<0x89>": 276,
      "<0x8A>": 277,
      "<0x8B>": 278,
      "<0x8C>": 279,
      "<0x8D>": 280,
      "<0x8E>": 281,
      "<0x8F>": 282,
      "<0x90>": 283,
      "<0x91>": 284,
      "<0x92>": 285,
      "<0x93>": 286,
      "<0x94>": 287,
      "<0x95>": 288,
      "<0x96>": 289,
      "<0x97>": 290,
      "<0x98>": 291,
      "<0x99>": 292,
      "<0x9A>": 293,
      "<0x9B>": 294,
      "<0x9C>": 295,
      "<0x9D>": 296,
      "<0x9E>": 297,
      "<0x9F>": 298,
      "<0xA0>": 299,
      "<0xA1>": 300,
      "<0xA2>": 301,
      "<0xA3>": 302,
      "<0xA4>": 303,
      "<0xA5>": 304,
      "<0xA6>": 305,
      "<0xA7>": 306,
      "<0xA8>": 307,
      "<0xA9>": 308,
      "<0xAA>": 309,
      "<0xAB>": 310,
      "<0xAC>": 311,
      "<0xAD>": 312,
      "<0xAE>": 313,
      "<0xAF>": 314,
      "<0xB0>": 315,
      "<0xB1>": 316,
      "<0xB2>": 317,
      "<0xB3>": 318,
      "<0xB4>": 319,
      "<0xB5>": 320,
      "<0xB6>": 321,
      "<0xB7>": 322,
      "<0xB8>": 323,
      "<0xB9>": 324,
      "<0xBA>": 325,
      "<0xBB>": 326,
      "<0xBC>": 327,
      "<0xBD>": 328,
      "<0xBE>": 329,
      "<0xBF>": 330,
      "<0xC0>": 331,
      "<0xC1>": 332,
      "<0xC2>": 333,
      "<0xC3>": 334,
      "<0xC4>": 335,
      "<0xC5>": 336,
      "<0xC6>": 337,
      "<0xC7>": 338,
      "<0xC8>": 339,
      "<0xC9>": 340,
      "<0xCA>": 341,
      "<0xCB>": 342,
      "<0xCC>": 343,
      "<0xCD>": 344,
      "<0xCE>": 345,
      "<0xCF>": 346,
      "<0xD0>": 347,
      "<0xD1>": 348,
      "<0xD2>": 349,
      "<0xD3>": 350,
      "<0xD4>": 351,
      "<0xD5>": 352,
      "<0xD6>": 353,
      "<0xD7>": 354,
      "<0xD8>": 355,
      "<0xD9>": 356,
      "<0xDA>": 357,
      "<0xDB>": 358,
      "<0xDC>": 359,
      "<0xDD>": 360,
      "<0xDE>": 361,
      "<0xDF>": 362,
      "<0xE0>": 363,
      "<0xE1>": 364,
      "<0xE2>": 365,
      "<0xE3>": 366,
      "<0xE4>": 367,
      "<0xE5>": 368,
      "<0xE6>": 369,
      "<0xE7>": 370,
      "<0xE8>": 371,
      "<0xE9>": 372,
      "<0xEA>": 373,
      "<0xEB>": 374,
      "<0xEC>": 375,
      "<0xED>": 376,
      "<0xEE>": 377,
      "<0xEF>": 378,
      "<0xF0>": 379,
      "<0xF1>": 380,
      "<0xF2>": 381,
      "<0xF3>": 382,
      "<0xF4>": 383,
      "<0xF5>": 384,
      "<0xF6>": 385,
      "<0xF7>": 386,
      "<0xF8>": 387,
      "<0xF9>": 388,
      "<0xFA>": 389,
      "<0xFB>": 390,
      "<0xFC>": 391,
      "<0xFD>": 392,
      "<0xFE>": 393,
      "<0xFF>": 394,
      "▁t": 395,
      "in": 396,
      "▁a": 397,
      "er": 398,
      "on": 399,
      "he": 400,
      "re": 401,
      "en": 402,
      "at": 403,
      "▁s": 404,
      "or": 405,
      "▁c": 406,
      "▁the": 407,
      "es": 408,
      "an": 409,
      "it": 410,
      "▁p": 411,
      "is": 412,
      "▁o": 413,
      "▁d": 414,
      "al": 415,
      "▁w": 416,
      "ar": 417,
      "▁f": 418,
      "▁b": 419,
      "le": 420,
      "▁m": 421,
      "ou": 422,
      "ing": 423,
      "nd": 424,
      "ed": 425,
      "ic": 426,
      "ion": 427,
      "as": 428,
      "▁in": 429,
      "▁of": 430,
      "ro": 431,
      "▁to": 432,
      "▁and": 433,
      "ent": 434,
      "▁h": 435,
      "el": 436,
      "et": 437,
      "▁l": 438,
      "▁n": 439,
      "ct": 440,
      "st": 441,
      "▁th": 442,
      "om": 443,
      "il": 444,
      "▁re": 445,
      "▁e": 446,
      "am": 447,
      "id": 448,
      "im": 449,
      "▁g": 450,
      "ut": 451,
      "ol": 452,
      "ac": 453,
      "ad": 454,
      "ig": 455,
      "▁S": 456,
      "ur": 457,
      "ot": 458,
      "▁T": 459,
      "▁u": 460,
      "ve": 461,
      "se": 462,
      "▁A": 463,
      "▁is": 464,
      "▁I": 465,
      "▁C": 466,
      "▁v": 467,
      "ation": 468,
      "▁(": 469,
      "▁de": 470,
      "▁y": 471,
      "ay": 472,
      "ow": 473,
      "▁for": 474,
      "ch": 475,
      "ul": 476,
      "qu": 477,
      "▁be": 478,
      "▁=": 479,
      "▁st": 480,
      "▁on": 481,
      "em": 482,
      "ag": 483,
      "ir": 484,
      "if": 485,
      "os": 486,
      "ly": 487,
      "▁M": 488,
      "ce": 489,
      "ter": 490,
      "od": 491,
      "▁con": 492,
      "ith": 493,
      "▁P": 494,
      "th": 495,
      "ver": 496,
      "ab": 497,
      "um": 498,
      "est": 499,
      "▁that": 500,
      "ra": 501,
      "un": 502,
      "▁B": 503,
      "ri": 504,
      "us": 505,
      "ate": 506,
      "▁with": 507,
      "▁pro": 508,
      "▁$": 509,
      "▁al": 510,
      "▁you": 511,
      "pp": 512,
      "ht": 513,
      "▁an": 514,
      "ers": 515,
      "ist": 516,
      "▁as": 517,
      "res": 518,
      "▁k": 519,
      "▁\\": 520,
      "▁D": 521,
      "▁\"": 522,
      "and": 523,
      "▁it": 524,
      ");": 525,
      "ere": 526,
      "ak": 527,
      "oc": 528,
      "▁R": 529,
      "▁com": 530,
      "ort": 531,
      "▁F": 532,
      "ess": 533,
      "pe": 534,
      "▁se": 535,
      "▁r": 536,
      "ant": 537,
      "▁L": 538,
      "▁H": 539,
      "ew": 540,
      "▁{": 541,
      "end": 542,
      "ill": 543,
      "▁E": 544,
      "▁N": 545,
      "ction": 546,
      "iv": 547,
      "▁W": 548,
      "op": 549,
      "ath": 550,
      "▁ex": 551,
      "▁or": 552,
      "te": 553,
      "▁<": 554,
      "ight": 555,
      "▁at": 556,
      "ment": 557,
      "▁are": 558,
      "rom": 559,
      "art": 560,
      "ain": 561,
      "ore": 562,
      "▁su": 563,
      "ity": 564,
      "nt": 565,
      "▁G": 566,
      "▁he": 567,
      "▁The": 568,
      "ap": 569,
      "ld": 570,
      "▁this": 571,
      "▁j": 572,
      "▁le": 573,
      "pl": 574,
      "age": 575,
      "▁ch": 576,
      "▁ha": 577,
      "og": 578,
      "ok": 579,
      "_{": 580,
      "▁}": 581,
      "ame": 582,
      "▁by": 583,
      "iz": 584,
      "ue": 585,
      "ine": 586,
      "ud": 587,
      "▁qu": 588,
      "▁was": 589,
      "▁we": 590,
      "pt": 591,
      "ure": 592,
      "ies": 593,
      "▁en": 594,
      "ack": 595,
      "ang": 596,
      "▁from": 597,
      "our": 598,
      "ass": 599,
      "ie": 600,
      "▁sh": 601,
      "ive": 602,
      "ial": 603,
      "ust": 604,
      "▁O": 605,
      "ub": 606,
      "rou": 607,
      "▁not": 608,
      "all": 609,
      "ell": 610,
      "ard": 611,
      "//": 612,
      "ex": 613,
      "=\"": 614,
      "▁tr": 615,
      "int": 616,
      "per": 617,
      "ia": 618,
      "▁un": 619,
      "ind": 620,
      "out": 621,
      "--": 622,
      "ik": 623,
      "port": 624,
      "▁pl": 625,
      "▁J": 626,
      "ost": 627,
      "▁cl": 628,
      "are": 629,
      "ich": 630,
      "▁have": 631,
      "ff": 632,
      "av": 633,
      "cl": 634,
      "▁can": 635,
      "orm": 636,
      "able": 637,
      "ans": 638,
      "ult": 639,
      "con": 640,
      "math": 641,
      "ib": 642,
      "▁U": 643,
      "ire": 644,
      "▁K": 645,
      "ast": 646,
      "▁-": 647,
      "ide": 648,
      "ile": 649,
      "▁'": 650,
      "▁im": 651,
      "▁la": 652,
      "ip": 653,
      "ome": 654,
      "ice": 655,
      "▁ab": 656,
      "ime": 657,
      "ft": 658,
      "▁res": 659,
      "cc": 660,
      "▁if": 661,
      ").": 662,
      "▁ne": 663,
      "▁ad": 664,
      "act": 665,
      "ated": 666,
      "▁us": 667,
      "▁do": 668,
      "▁comp": 669,
      "ord": 670,
      "),": 671,
      "du": 672,
      "ase": 673,
      "▁V": 674,
      "▁.": 675,
      "▁all": 676,
      "ite": 677,
      "▁me": 678,
      "ge": 679,
      "lic": 680,
      "hen": 681,
      "^{": 682,
      "ph": 683,
      "ace": 684,
      "ber": 685,
      "urn": 686,
      "▁will": 687,
      "ign": 688,
      "ong": 689,
      "▁cont": 690,
      "▁In": 691,
      "ical": 692,
      "▁int": 693,
      "ork": 694,
      "ear": 695,
      "ition": 696,
      "ata": 697,
      "ous": 698,
      "▁Th": 699,
      "▁*": 700,
      "row": 701,
      "▁per": 702,
      "one": 703,
      "rm": 704,
      "ach": 705,
      "so": 706,
      "▁has": 707,
      "ru": 708,
      "▁go": 709,
      "The": 710,
      "ence": 711,
      "fer": 712,
      "▁your": 713,
      "}$": 714,
      "ry": 715,
      "()": 716,
      "au": 717,
      "\",": 718,
      "get": 719,
      "ng": 720,
      "ont": 721,
      "ance": 722,
      "ens": 723,
      "▁&": 724,
      "▁so": 725,
      "ary": 726,
      "▁which": 727,
      "ep": 728,
      "ther": 729,
      "▁but": 730,
      "ma": 731,
      "▁St": 732,
      "▁п": 733,
      "lo": 734,
      "form": 735,
      "ations": 736,
      "ount": 737,
      "ring": 738,
      "ress": 739,
      "▁des": 740,
      "com": 741,
      "▁out": 742,
      "..": 743,
      "▁i": 744,
      "ll": 745,
      "gh": 746,
      "▁new": 747,
      "▁el": 748,
      "▁ar": 749,
      "▁dis": 750,
      "▁pr": 751,
      "ne": 752,
      "ov": 753,
      "▁[": 754,
      "ст": 755,
      "▁up": 756,
      "ake": 757,
      "▁$\\": 758,
      "ook": 759,
      "ents": 760,
      "▁pre": 761,
      "ions": 762,
      "erv": 763,
      "▁man": 764,
      "elf": 765,
      "ual": 766,
      "(\"": 767,
      "▁one": 768,
      "ose": 769,
      "▁sa": 770,
      "ask": 771,
      "▁sp": 772,
      "de": 773,
      "St": 774,
      "▁Y": 775,
      "io": 776,
      "right": 777,
      "ark": 778,
      "▁+": 779,
      "▁they": 780,
      "In": 781,
      "xt": 782,
      "▁z": 783,
      "\">": 784,
      "cre": 785,
      "ert": 786,
      "▁в": 787,
      "▁their": 788,
      "на": 789,
      "▁part": 790,
      "ors": 791,
      "▁his": 792,
      "vel": 793,
      "ext": 794,
      "ail": 795,
      "ater": 796,
      "▁more": 797,
      "enc": 798,
      "но": 799,
      "yst": 800,
      "▁te": 801,
      "ject": 802,
      "▁que": 803,
      "ree": 804,
      "own": 805,
      "ck": 806,
      "ory": 807,
      "iew": 808,
      "▁ro": 809,
      "ick": 810,
      "▁с": 811,
      "ild": 812,
      "▁inter": 813,
      "▁und": 814,
      "ple": 815,
      "che": 816,
      "▁par": 817,
      "ock": 818,
      "old": 819,
      "ни": 820,
      "her": 821,
      "▁no": 822,
      "eg": 823,
      "ely": 824,
      "</": 825,
      "ра": 826,
      "ah": 827,
      "}\\": 828,
      "▁ev": 829,
      "ound": 830,
      "ink": 831,
      "',": 832,
      "▁were": 833,
      "▁/": 834,
      "pon": 835,
      "▁ag": 836,
      "ize": 837,
      "ient": 838,
      "▁Ch": 839,
      "pr": 840,
      "▁//": 841,
      "▁get": 842,
      "ps": 843,
      "low": 844,
      "we": 845,
      "ery": 846,
      "ari": 847,
      "▁work": 848,
      "ob": 849,
      "ode": 850,
      "ike": 851,
      "ys": 852,
      "left": 853,
      "▁time": 854,
      "led": 855,
      "▁also": 856,
      "▁there": 857,
      "▁م": 858,
      "ype": 859,
      "▁#": 860,
      "▁“": 861,
      "put": 862,
      "▁di": 863,
      "erm": 864,
      "▁about": 865,
      "ays": 866,
      "text": 867,
      "▁am": 868,
      "ade": 869,
      "▁et": 870,
      "▁est": 871,
      "▁been": 872,
      "▁class": 873,
      "ings": 874,
      "wo": 875,
      "▁who": 876,
      "▁val": 877,
      "▁:": 878,
      "**": 879,
      "sp": 880,
      "ric": 881,
      "▁pe": 882,
      "▁our": 883,
      "▁over": 884,
      "set": 885,
      "ener": 886,
      "▁co": 887,
      "▁ob": 888,
      "▁It": 889,
      "▁,": 890,
      "▁other": 891,
      "('": 892,
      "ove": 893,
      "irst": 894,
      "ian": 895,
      "ро": 896,
      "----": 897,
      "▁my": 898,
      "mer": 899,
      "ram": 900,
      "ish": 901,
      "pro": 902,
      "▁spe": 903,
      "up": 904,
      "inal": 905,
      "ec": 906,
      "▁year": 907,
      "anc": 908,
      "▁had": 909,
      "▁when": 910,
      "ко": 911,
      "▁sc": 912,
      "▁its": 913,
      "то": 914,
      "▁back": 915,
      "eth": 916,
      "oken": 917,
      "ull": 918,
      "▁some": 919,
      "to": 920,
      "ey": 921,
      "rib": 922,
      "les": 923,
      "ss": 924,
      "▁set": 925,
      "▁и": 926,
      "ific": 927,
      "▁than": 928,
      "\":": 929,
      "iss": 930,
      "();": 931,
      "itt": 932,
      "oy": 933,
      "ates": 934,
      "▁them": 935,
      "▁em": 936,
      "▁would": 937,
      "eng": 938,
      "ier": 939,
      "fter": 940,
      "iel": 941,
      "▁о": 942,
      "▁bl": 943,
      "import": 944,
      "igh": 945,
      "ton": 946,
      "▁|": 947,
      "app": 948,
      "val": 949,
      "ug": 950,
      "▁es": 951,
      "▁her": 952,
      "ise": 953,
      "▁pos": 954,
      "ange": 955,
      "▁mod": 956,
      "vers": 957,
      "▁cons": 958,
      "▁x": 959,
      "ax": 960,
      "▁rec": 961,
      ".,": 962,
      "der": 963,
      "ek": 964,
      "▁into": 965,
      "ann": 966,
      "▁like": 967,
      "▁act": 968,
      "▁off": 969,
      "und": 970,
      "ON": 971,
      "cept": 972,
      "▁what": 973,
      "fr": 974,
      "▁bet": 975,
      "ble": 976,
      "▁may": 977,
      "ре": 978,
      "ally": 979,
      "ement": 980,
      "▁two": 981,
      "▁reg": 982,
      "very": 983,
      "▁sub": 984,
      "->": 985,
      "▁use": 986,
      "▁del": 987,
      "pos": 988,
      "▁just": 989,
      "sc": 990,
      "▁д": 991,
      "tr": 992,
      "ox": 993,
      "}{": 994,
      "▁first": 995,
      "ef": 996,
      "ка": 997,
      "▁This": 998,
      "▁said": 999,
      "ym": 1000,
      "ied": 1001,
      "sh": 1002,
      "pect": 1003,
      "ank": 1004,
      "▁form": 1005,
      "let": 1006,
      "▁only": 1007,
      "arg": 1008,
      "▁gr": 1009,
      "ons": 1010,
      "▁We": 1011,
      "red": 1012,
      "err": 1013,
      "ating": 1014,
      "olog": 1015,
      "aj": 1016,
      "▁bu": 1017,
      "name": 1018,
      "▁need": 1019,
      "ale": 1020,
      "IN": 1021,
      "ix": 1022,
      "▁under": 1023,
      "ool": 1024,
      "ict": 1025,
      "▁و": 1026,
      "Th": 1027,
      "par": 1028,
      "▁how": 1029,
      "▁prov": 1030,
      "tt": 1031,
      "uch": 1032,
      "))": 1033,
      "==": 1034,
      "az": 1035,
      "▁ac": 1036,
      "ung": 1037,
      "ics": 1038,
      "ments": 1039,
      "го": 1040,
      "ва": 1041,
      "tern": 1042,
      "oth": 1043,
      "▁public": 1044,
      "▁these": 1045,
      "riv": 1046,
      "ен": 1047,
      "ople": 1048,
      "}^{": 1049,
      "ли": 1050,
      "ta": 1051,
      "ility": 1052,
      "que": 1053,
      "ner": 1054,
      "▁==": 1055,
      "ible": 1056,
      "ray": 1057,
      "▁Pro": 1058,
      "rain": 1059,
      "line": 1060,
      "its": 1061,
      "ield": 1062,
      "vent": 1063,
      "ning": 1064,
      "▁data": 1065,
      "},": 1066,
      "ures": 1067,
      "▁stat": 1068,
      "▁pol": 1069,
      "__": 1070,
      "▁sur": 1071,
      "▁–": 1072,
      "▁che": 1073,
      "ren": 1074,
      "ful": 1075,
      "▁Re": 1076,
      "ator": 1077,
      "▁pres": 1078,
      "ative": 1079,
      "▁know": 1080,
      "add": 1081,
      "ages": 1082,
      "ón": 1083,
      "ution": 1084,
      "▁Un": 1085,
      "ci": 1086,
      "▁such": 1087,
      "mo": 1088,
      "▁det": 1089,
      "▁He": 1090,
      "als": 1091,
      "▁car": 1092,
      "atch": 1093,
      "ри": 1094,
      "▁where": 1095,
      "▁then": 1096,
      "▁Com": 1097,
      "rit": 1098,
      "ues": 1099,
      "▁she": 1100,
      "те": 1101,
      "}_{": 1102,
      "▁after": 1103,
      "any": 1104,
      "ond": 1105,
      "▁по": 1106,
      "(\\": 1107,
      "ower": 1108,
      "ash": 1109,
      "▁м": 1110,
      "erson": 1111,
      "▁min": 1112,
      "▁rem": 1113,
      "ident": 1114,
      "▁inst": 1115,
      "mi": 1116,
      "ute": 1117,
      "та": 1118,
      "▁people": 1119,
      "▁на": 1120,
      "me": 1121,
      "не": 1122,
      "arch": 1123,
      "▁Se": 1124,
      "of": 1125,
      "▁through": 1126,
      "▁end": 1127,
      "▁most": 1128,
      "ser": 1129,
      "aw": 1130,
      "ль": 1131,
      "ough": 1132,
      "hat": 1133,
      "ational": 1134,
      "▁result": 1135,
      "ms": 1136,
      "▁cor": 1137,
      "ased": 1138,
      "ider": 1139,
      "ty": 1140,
      "co": 1141,
      "ins": 1142,
      "▁Q": 1143,
      "▁ser": 1144,
      ")$": 1145,
      "\")": 1146,
      "▁should": 1147,
      "roup": 1148,
      "▁fl": 1149,
      "ла": 1150,
      "▁ve": 1151,
      "▁aut": 1152,
      "▁look": 1153,
      "▁make": 1154,
      "min": 1155,
      "ai": 1156,
      "...": 1157,
      "ground": 1158,
      "▁@": 1159,
      "▁op": 1160,
      "uc": 1161,
      "▁sim": 1162,
      "▁very": 1163,
      "ily": 1164,
      "air": 1165,
      "▁show": 1166,
      "##": 1167,
      "://": 1168,
      "ts": 1169,
      "amp": 1170,
      "els": 1171,
      "wn": 1172,
      "▁av": 1173,
      "cent": 1174,
      "ces": 1175,
      "rol": 1176,
      "▁Al": 1177,
      "imes": 1178,
      "oid": 1179,
      "ious": 1180,
      "ruct": 1181,
      "the": 1182,
      "ado": 1183,
      "▁long": 1184,
      "▁play": 1185,
      "▁dist": 1186,
      "\");": 1187,
      "gan": 1188,
      "ern": 1189,
      "▁right": 1190,
      "▁los": 1191,
      "▁could": 1192,
      "▁And": 1193,
      "▁</": 1194,
      "▁An": 1195,
      "▁used": 1196,
      "br": 1197,
      "▁system": 1198,
      "▁ra": 1199,
      "▁see": 1200,
      "▁want": 1201,
      "▁name": 1202,
      "ле": 1203,
      "ced": 1204,
      "ны": 1205,
      "▁б": 1206,
      "▁med": 1207,
      "ines": 1208,
      "):": 1209,
      "aut": 1210,
      "ward": 1211,
      "▁=>": 1212,
      "ave": 1213,
      "Re": 1214,
      "::": 1215,
      "ife": 1216,
      "yn": 1217,
      "Pro": 1218,
      "uk": 1219,
      "▁Z": 1220,
      "▁now": 1221,
      "ting": 1222,
      "▁high": 1223,
      "day": 1224,
      "ots": 1225,
      "ada": 1226,
      "▁start": 1227,
      "▁mon": 1228,
      "ven": 1229,
      "Con": 1230,
      "ho": 1231,
      "It": 1232,
      "▁lo": 1233,
      "Im": 1234,
      "▁him": 1235,
      "data": 1236,
      "ión": 1237,
      "▁years": 1238,
      "oun": 1239,
      "▁point": 1240,
      "amb": 1241,
      "▁hand": 1242,
      "ml": 1243,
      "▁з": 1244,
      "ody": 1245,
      "▁let": 1246,
      "▁between": 1247,
      "▁good": 1248,
      "▁don": 1249,
      "other": 1250,
      "yl": 1251,
      "view": 1252,
      "tain": 1253,
      "▁because": 1254,
      "▁number": 1255,
      "▁many": 1256,
      "ited": 1257,
      "be": 1258,
      "li": 1259,
      "play": 1260,
      "▁der": 1261,
      "Com": 1262,
      "▁é": 1263,
      "man": 1264,
      "▁د": 1265,
      "{\\": 1266,
      "▁sk": 1267,
      "Name": 1268,
      "gr": 1269,
      "Id": 1270,
      "▁again": 1271,
      "ten": 1272,
      "▁Ar": 1273,
      "▁inform": 1274,
      "alk": 1275,
      "abel": 1276,
      "во": 1277,
      "▁char": 1278,
      "▁even": 1279,
      "iness": 1280,
      "Cont": 1281,
      "chn": 1282,
      "log": 1283,
      "son": 1284,
      "▁person": 1285,
      "▁here": 1286,
      "land": 1287,
      "ão": 1288,
      "▁So": 1289,
      "▁test": 1290,
      "▁way": 1291,
      "ional": 1292,
      "▁You": 1293,
      "ло": 1294,
      "▁did": 1295,
      "▁made": 1296,
      "],": 1297,
      "▁cent": 1298,
      "')": 1299,
      "▁à": 1300,
      "▁art": 1301,
      "--------": 1302,
      "List": 1303,
      "ica": 1304,
      "▁br": 1305,
      "gram": 1306,
      "ки": 1307,
      "LE": 1308,
      "].": 1309,
      "ти": 1310,
      "ample": 1311,
      "▁much": 1312,
      "▁case": 1313,
      "ati": 1314,
      "ever": 1315,
      "ane": 1316,
      "ina": 1317,
      "=\\": 1318,
      "uss": 1319,
      "ene": 1320,
      "▁bus": 1321,
      "ij": 1322,
      "▁If": 1323,
      "▁same": 1324,
      "ants": 1325,
      "▁les": 1326,
      "eb": 1327,
      "▁para": 1328,
      "cur": 1329,
      "▁met": 1330,
      "▁being": 1331,
      "▁som": 1332,
      "dd": 1333,
      "▁while": 1334,
      "gy": 1335,
      "cal": 1336,
      "part": 1337,
      "▁process": 1338,
      "да": 1339,
      "Ch": 1340,
      "ized": 1341,
      "▁tra": 1342,
      "ource": 1343,
      "att": 1344,
      "▁develop": 1345,
      "arn": 1346,
      "fl": 1347,
      "▁read": 1348,
      "▁down": 1349,
      "▁before": 1350,
      "rop": 1351,
      "Ex": 1352,
      "▁X": 1353,
      "▁fr": 1354,
      "ather": 1355,
      "span": 1356,
      "ital": 1357,
      "▁list": 1358,
      "▁product": 1359,
      "▁using": 1360,
      "▁Con": 1361,
      "▁For": 1362,
      "▁design": 1363,
      "▁\\\\": 1364,
      "▁Sh": 1365,
      "ait": 1366,
      "for": 1367,
      "bo": 1368,
      "raw": 1369,
      "ets": 1370,
      "str": 1371,
      "ть": 1372,
      "ger": 1373,
      "▁!": 1374,
      "ined": 1375,
      "▁day": 1376,
      "oci": 1377,
      "\";": 1378,
      "▁type": 1379,
      "alth": 1380,
      "▁those": 1381,
      "ke": 1382,
      "arm": 1383,
      "ars": 1384,
      "▁)": 1385,
      "▁Tr": 1386,
      "pre": 1387,
      "ason": 1388,
      "▁vis": 1389,
      "_{\\": 1390,
      "ер": 1391,
      "era": 1392,
      "sw": 1393,
      "▁du": 1394,
      "ет": 1395,
      "over": 1396,
      "▁think": 1397,
      "▁у": 1398,
      "▁mat": 1399,
      "▁line": 1400,
      "▁men": 1401,
      "▁real": 1402,
      "ames": 1403,
      "ural": 1404,
      "▁found": 1405,
      "eta": 1406,
      "ament": 1407,
      "▁take": 1408,
      "ght": 1409,
      "▁going": 1410,
      "▁As": 1411,
      "▁last": 1412,
      "yp": 1413,
      "▁da": 1414,
      "ole": 1415,
      "▁die": 1416,
      "ases": 1417,
      ".\"": 1418,
      "bl": 1419,
      "▁De": 1420,
      "▁na": 1421,
      "▁pass": 1422,
      "▁Ex": 1423,
      "ness": 1424,
      "na": 1425,
      "▁best": 1426,
      "ared": 1427,
      "fo": 1428,
      "fe": 1429,
      "ava": 1430,
      "><": 1431,
      "▁New": 1432,
      "ivers": 1433,
      "▁bre": 1434,
      "▁oper": 1435,
      "▁System": 1436,
      "▁three": 1437,
      "}}": 1438,
      "hes": 1439,
      "oh": 1440,
      "ref": 1441,
      "▁water": 1442,
      "hor": 1443,
      "ters": 1444,
      ".”": 1445,
      "ott": 1446,
      "Cl": 1447,
      "ral": 1448,
      "roll": 1449,
      "▁Le": 1450,
      "ior": 1451,
      "hip": 1452,
      "ross": 1453,
      "▁por": 1454,
      "ote": 1455,
      "ien": 1456,
      "uf": 1457,
      "▁id": 1458,
      "ctor": 1459,
      "▁Ind": 1460,
      "ams": 1461,
      "ization": 1462,
      "▁second": 1463,
      "urs": 1464,
      "String": 1465,
      "ron": 1466,
      "ology": 1467,
      "ense": 1468,
      "▁post": 1469,
      "Se": 1470,
      "pec": 1471,
      "ved": 1472,
      "gg": 1473,
      "és": 1474,
      "ader": 1475,
      "▁say": 1476,
      "▁prof": 1477,
      "We": 1478,
      "▁state": 1479,
      "▁rest": 1480,
      "px": 1481,
      "bs": 1482,
      "ision": 1483,
      "▁>": 1484,
      "ify": 1485,
      "****": 1486,
      "ault": 1487,
      "ency": 1488,
      "date": 1489,
      "ler": 1490,
      "mod": 1491,
      "▁world": 1492,
      "▁top": 1493,
      "no": 1494,
      "▁non": 1495,
      "go": 1496,
      "▁during": 1497,
      "wh": 1498,
      "rc": 1499,
      "▁ver": 1500,
      "lex": 1501,
      "ny": 1502,
      "▁must": 1503,
      "['": 1504,
      "ule": 1505,
      "▁sl": 1506,
      "ana": 1507,
      "da": 1508,
      "div": 1509,
      "ism": 1510,
      "use": 1511,
      "^{\\": 1512,
      "▁open": 1513,
      "less": 1514,
      "ze": 1515,
      "\"]": 1516,
      "▁ко": 1517,
      "▁information": 1518,
      "ux": 1519,
      "ium": 1520,
      "back": 1521,
      "▁а": 1522,
      "▁program": 1523,
      "ides": 1524,
      "akes": 1525,
      "new": 1526,
      "▁Ph": 1527,
      "ists": 1528,
      "je": 1529,
      "▁Cl": 1530,
      "▁business": 1531,
      "ember": 1532,
      "ving": 1533,
      "var": 1534,
      "▁vol": 1535,
      "▁life": 1536,
      "▁Pl": 1537,
      "ush": 1538,
      "▁stand": 1539,
      "▁cr": 1540,
      "▁place": 1541,
      "face": 1542,
      "Col": 1543,
      "▁um": 1544,
      "▁level": 1545,
      "▁una": 1546,
      "const": 1547,
      "Res": 1548,
      "med": 1549,
      "▁не": 1550,
      "print": 1551,
      "arge": 1552,
      "▁il": 1553,
      "']": 1554,
      "че": 1555,
      "by": 1556,
      "td": 1557,
      "....": 1558,
      "▁App": 1559,
      "}(": 1560,
      "▁build": 1561,
      "▁gre": 1562,
      "ety": 1563,
      "itions": 1564,
      "To": 1565,
      "ди": 1566,
      "Ar": 1567,
      "▁But": 1568,
      "work": 1569,
      "ique": 1570,
      "ality": 1571,
      "▁model": 1572,
      "ся": 1573,
      "ives": 1574,
      "ara": 1575,
      "▁home": 1576,
      "▁den": 1577,
      "Tr": 1578,
      "▁still": 1579,
      "View": 1580,
      "▁*/": 1581,
      "▁за": 1582,
      "▁row": 1583,
      "▁try": 1584,
      "ма": 1585,
      "ves": 1586,
      "ми": 1587,
      "action": 1588,
      "▁power": 1589,
      "Text": 1590,
      "ends": 1591,
      "▁week": 1592,
      "▁report": 1593,
      "max": 1594,
      "▁anal": 1595,
      "▁pur": 1596,
      "▁tri": 1597,
      "inc": 1598,
      "ля": 1599,
      "▁si": 1600,
      "type": 1601,
      "▁There": 1602,
      "▁er": 1603,
      "▁How": 1604,
      "js": 1605,
      "ified": 1606,
      "This": 1607,
      ",\"": 1608,
      "▁po": 1609,
      "Data": 1610,
      "▁around": 1611,
      "▁Fr": 1612,
      "ación": 1613,
      "$.": 1614,
      "');": 1615,
      "ways": 1616,
      "net": 1617,
      "ability": 1618,
      "▁к": 1619,
      "▁Col": 1620,
      "▁gl": 1621,
      "eter": 1622,
      "ви": 1623,
      "ha": 1624,
      "====": 1625,
      "ister": 1626,
      "++": 1627,
      "ру": 1628,
      "▁really": 1629,
      "iron": 1630,
      ",”": 1631,
      "▁important": 1632,
      "';": 1633,
      "▁/>": 1634,
      "▁las": 1635,
      "atic": 1636,
      "ats": 1637,
      "▁‘": 1638,
      "ination": 1639,
      "▁%": 1640,
      "▁ca": 1641,
      "▁private": 1642,
      "▁next": 1643,
      "la": 1644,
      "por": 1645,
      "▁On": 1646,
      "ato": 1647,
      "▁cost": 1648,
      "pi": 1649,
      "orn": 1650,
      "file": 1651,
      "▁`": 1652,
      "ee": 1653,
      "itor": 1654,
      "ga": 1655,
      "▁white": 1656,
      "adi": 1657,
      "bol": 1658,
      "▁Sp": 1659,
      "▁dev": 1660,
      "▁without": 1661,
      "test": 1662,
      "rem": 1663,
      "▁je": 1664,
      "де": 1665,
      "org": 1666,
      "▁adv": 1667,
      "▁—": 1668,
      "oot": 1669,
      "▁They": 1670,
      "▁free": 1671,
      "▁pot": 1672,
      "▁pop": 1673,
      "▁Be": 1674,
      "hi": 1675,
      "▁project": 1676,
      "sub": 1677,
      "As": 1678,
      "ards": 1679,
      "He": 1680,
      "▁light": 1681,
      "ici": 1682,
      "not": 1683,
      "▁},": 1684,
      "uro": 1685,
      "▁_": 1686,
      "ais": 1687,
      "ста": 1688,
      "▁head": 1689,
      "▁come": 1690,
      "bar": 1691,
      "list": 1692,
      "den": 1693,
      "pha": 1694,
      "▁given": 1695,
      "ception": 1696,
      "oto": 1697,
      "-\\": 1698,
      "stand": 1699,
      "▁call": 1700,
      "▁put": 1701,
      "une": 1702,
      "▁Wh": 1703,
      "▁old": 1704,
      "▁book": 1705,
      "▁Res": 1706,
      "▁local": 1707,
      "▁another": 1708,
      "bal": 1709,
      "inter": 1710,
      "An": 1711,
      "▁little": 1712,
      "▁following": 1713,
      "▁vers": 1714,
      "leg": 1715,
      "yd": 1716,
      "za": 1717,
      "ours": 1718,
      "ains": 1719,
      "▁bas": 1720,
      "iver": 1721,
      "▁To": 1722,
      "▁lim": 1723,
      "ци": 1724,
      "umber": 1725,
      "\\]": 1726,
      "time": 1727,
      "▁game": 1728,
      "reg": 1729,
      "By": 1730,
      "▁month": 1731,
      "▁group": 1732,
      "▁No": 1733,
      "ries": 1734,
      "▁null": 1735,
      "ero": 1736,
      "▁key": 1737,
      "ando": 1738,
      "▁too": 1739,
      "];": 1740,
      "nh": 1741,
      "Val": 1742,
      "▁fun": 1743,
      "\\[": 1744,
      "do": 1745,
      "rist": 1746,
      "▁sum": 1747,
      "opt": 1748,
      "ama": 1749,
      "Type": 1750,
      "▁про": 1751,
      "sum": 1752,
      "ems": 1753,
      "▁since": 1754,
      "ka": 1755,
      "lete": 1756,
      "▁Ad": 1757,
      "▁against": 1758,
      "▁All": 1759,
      "▁less": 1760,
      "▁pay": 1761,
      "▁within": 1762,
      "▁change": 1763,
      "▁document": 1764,
      "icle": 1765,
      "ks": 1766,
      "▁En": 1767,
      "ape": 1768,
      "▁?": 1769,
      "▁Amer": 1770,
      "user": 1771,
      "Al": 1772,
      "▁son": 1773,
      "ued": 1774,
      "AS": 1775,
      "▁Co": 1776,
      "ya": 1777,
      "▁Is": 1778,
      "▁Bl": 1779,
      "▁left": 1780,
      "iqu": 1781,
      "▁ч": 1782,
      "▁ра": 1783,
      "мо": 1784,
      "▁four": 1785,
      "ches": 1786,
      "ume": 1787,
      "▁super": 1788,
      "ling": 1789,
      "iod": 1790,
      "▁health": 1791,
      "itive": 1792,
      "▁Or": 1793,
      "▁port": 1794,
      "ired": 1795,
      "▁Pr": 1796,
      "▁leg": 1797,
      "по": 1798,
      "ino": 1799,
      "▁user": 1800,
      "▁area": 1801,
      "ayer": 1802,
      "▁market": 1803,
      "thing": 1804,
      "men": 1805,
      "▁including": 1806,
      "▁mag": 1807,
      "().": 1808,
      "ump": 1809,
      "erc": 1810,
      "af": 1811,
      "ui": 1812,
      "url": 1813,
      "})": 1814,
      "ift": 1815,
      "▁event": 1816,
      "▁always": 1817,
      "{~": 1818,
      "kt": 1819,
      "ised": 1820,
      "▁image": 1821,
      "uck": 1822,
      "▁Te": 1823,
      "▁ка": 1824,
      "ived": 1825,
      "key": 1826,
      "▁better": 1827,
      "▁Mar": 1828,
      "ico": 1829,
      "▁available": 1830,
      "ja": 1831,
      "▁turn": 1832,
      "▁inc": 1833,
      "prime": 1834,
      "ror": 1835,
      "$,": 1836,
      "aster": 1837,
      "ope": 1838,
      "▁got": 1839,
      "='": 1840,
      "conom": 1841,
      "▁service": 1842,
      "ون": 1843,
      "▁keep": 1844,
      "vert": 1845,
      "ía": 1846,
      "▁vi": 1847,
      "▁train": 1848,
      "ili": 1849,
      "▁family": 1850,
      "){": 1851,
      "▁school": 1852,
      "ails": 1853,
      "($": 1854,
      "}$.": 1855,
      "ida": 1856,
      "▁ce": 1857,
      "▁results": 1858,
      "ния": 1859,
      "iles": 1860,
      "▁break": 1861,
      "For": 1862,
      "from": 1863,
      "▁company": 1864,
      "ering": 1865,
      "ros": 1866,
      "py": 1867,
      "ention": 1868,
      "▁mar": 1869,
      "▁total": 1870,
      "▁material": 1871,
      "▁big": 1872,
      "uy": 1873,
      "box": 1874,
      "outh": 1875,
      "gen": 1876,
      "ession": 1877,
      "же": 1878,
      "https": 1879,
      "▁dr": 1880,
      "met": 1881,
      "▁~": 1882,
      "ably": 1883,
      "ante": 1884,
      "oss": 1885,
      "▁give": 1886,
      "][": 1887,
      "▁full": 1888,
      "></": 1889,
      "бо": 1890,
      "sk": 1891,
      "####": 1892,
      "iter": 1893,
      "▁Man": 1894,
      "ured": 1895,
      "▁land": 1896,
      "icon": 1897,
      "▁red": 1898,
      "▁problem": 1899,
      "oper": 1900,
      "▁до": 1901,
      "▁something": 1902,
      "idad": 1903,
      "▁--": 1904,
      "mail": 1905,
      "▁create": 1906,
      "aces": 1907,
      "▁law": 1908,
      "ury": 1909,
      "ley": 1910,
      "▁She": 1911,
      "हे": 1912,
      "``": 1913,
      "▁max": 1914,
      "':": 1915,
      "▁air": 1916,
      "ression": 1917,
      "▁pour": 1918,
      "={": 1919,
      "ables": 1920,
      "▁At": 1921,
      "oney": 1922,
      "iff": 1923,
      "ids": 1924,
      "opy": 1925,
      "aim": 1926,
      "ме": 1927,
      "▁hard": 1928,
      "▁possible": 1929,
      "Mod": 1930,
      "▁net": 1931,
      "pack": 1932,
      "▁tak": 1933,
      "po": 1934,
      "index": 1935,
      "ita": 1936,
      "}+": 1937,
      "ograph": 1938,
      "▁days": 1939,
      "ending": 1940,
      "до": 1941,
      "▁Eng": 1942,
      "aint": 1943,
      "▁ge": 1944,
      "way": 1945,
      "га": 1946,
      "arrow": 1947,
      "ww": 1948,
      "pper": 1949,
      "enn": 1950,
      "▁press": 1951,
      "ве": 1952,
      "cd": 1953,
      "acy": 1954,
      "itch": 1955,
      "▁э": 1956,
      "));": 1957,
      "ones": 1958,
      "./": 1959,
      "▁bi": 1960,
      "nal": 1961,
      "Ind": 1962,
      "▁low": 1963,
      "Ob": 1964,
      "ura": 1965,
      "▁});": 1966,
      "ido": 1967,
      "```": 1968,
      "▁Su": 1969,
      "mp": 1970,
      "▁based": 1971,
      "atus": 1972,
      "▁flow": 1973,
      "▁..": 1974,
      "En": 1975,
      "▁plan": 1976,
      "▁&&": 1977,
      "}=": 1978,
      "Pl": 1979,
      "▁body": 1980,
      "ev": 1981,
      "irt": 1982,
      "▁study": 1983,
      "equ": 1984,
      "ream": 1985,
      "▁never": 1986,
      "mu": 1987,
      "bt": 1988,
      "ção": 1989,
      "ние": 1990,
      "▁called": 1991,
      "▁Gr": 1992,
      "dis": 1993,
      "▁love": 1994,
      "▁hold": 1995,
      "www": 1996,
      "▁ris": 1997,
      "▁La": 1998,
      "rt": 1999,
      "▁social": 2000,
      "▁energy": 2001,
      "▁due": 2002,
      "▁times": 2003,
      "▁«": 2004,
      "▁со": 2005,
      "On": 2006,
      "lt": 2007,
      "▁far": 2008,
      "▁Br": 2009,
      "▁Qu": 2010,
      "▁typ": 2011,
      "kan": 2012,
      "▁access": 2013,
      "▁special": 2014,
      "Un": 2015,
      "aff": 2016,
      "▁won": 2017,
      "place": 2018,
      "])": 2019,
      "▁ter": 2020,
      "ür": 2021,
      "ini": 2022,
      "----------------": 2023,
      "▁short": 2024,
      "▁nat": 2025,
      "Wh": 2026,
      "▁nh": 2027,
      "head": 2028,
      "imal": 2029,
      "▁sat": 2030,
      "ih": 2031,
      "hold": 2032,
      "amma": 2033,
      "▁!=": 2034,
      "▁working": 2035,
      "▁period": 2036,
      "abor": 2037,
      "ither": 2038,
      "http": 2039,
      "cer": 2040,
      "If": 2041,
      "▁request": 2042,
      "off": 2043,
      "Time": 2044,
      "▁dan": 2045,
      "▁meet": 2046,
      "▁El": 2047,
      "oll": 2048,
      "link": 2049,
      "User": 2050,
      "▁sem": 2051,
      "▁country": 2052,
      "ры": 2053,
      "▁;": 2054,
      "sem": 2055,
      "side": 2056,
      "сти": 2057,
      "▁What": 2058,
      "aring": 2059,
      "ula": 2060,
      "ware": 2061,
      "ste": 2062,
      ".)": 2063,
      "mit": 2064,
      "▁talk": 2065,
      ")\\": 2066,
      "▁development": 2067,
      "su": 2068,
      "▁plus": 2069,
      "▁ang": 2070,
      "ude": 2071,
      "▁step": 2072,
      "va": 2073,
      "ett": 2074,
      "rel": 2075,
      "mn": 2076,
      "ored": 2077,
      "▁الم": 2078,
      "ager": 2079,
      "hr": 2080,
      "сто": 2081,
      "▁Che": 2082,
      "▁position": 2083,
      "▁children": 2084,
      "sl": 2085,
      "arl": 2086,
      "zy": 2087,
      "▁video": 2088,
      "ender": 2089,
      "}$,": 2090,
      "mat": 2091,
      "apt": 2092,
      "▁research": 2093,
      "ilar": 2094,
      "▁dat": 2095,
      "ands": 2096,
      "▁С": 2097,
      "си": 2098,
      "▁Cont": 2099,
      "▁action": 2100,
      "ча": 2101,
      "▁[]": 2102,
      "▁room": 2103,
      "▁That": 2104,
      "▁pas": 2105,
      "ores": 2106,
      "▁<<": 2107,
      "irl": 2108,
      "▁от": 2109,
      "▁Sc": 2110,
      "хо": 2111,
      "▁при": 2112,
      "now": 2113,
      "iled": 2114,
      "▁course": 2115,
      "▁content": 2116,
      "idd": 2117,
      "ison": 2118,
      "▁along": 2119,
      "icy": 2120,
      "ione": 2121,
      "unt": 2122,
      "▁Am": 2123,
      "▁already": 2124,
      "word": 2125,
      "ache": 2126,
      "▁services": 2127,
      "loc": 2128,
      "img": 2129,
      "ito": 2130,
      "▁When": 2131,
      "▁van": 2132,
      "▁bar": 2133,
      "▁Cent": 2134,
      "▁display": 2135,
      "ibr": 2136,
      "Button": 2137,
      "▁une": 2138,
      "▁vo": 2139,
      "idence": 2140,
      "start": 2141,
      "▁П": 2142,
      "ados": 2143,
      "ня": 2144,
      "You": 2145,
      "чи": 2146,
      "ales": 2147,
      "▁е": 2148,
      "uration": 2149,
      "▁fund": 2150,
      "\".": 2151,
      "▁Me": 2152,
      "style": 2153,
      "body": 2154,
      "yt": 2155,
      "book": 2156,
      "▁response": 2157,
      "▁Im": 2158,
      "▁together": 2159,
      "oin": 2160,
      "pg": 2161,
      "▁Min": 2162,
      "irm": 2163,
      "▁τ": 2164,
      "ilit": 2165,
      "▁dom": 2166,
      "за": 2167,
      "ills": 2168,
      "icht": 2169,
      "lev": 2170,
      "▁until": 2171,
      "▁bit": 2172,
      "▁close": 2173,
      "▁Pol": 2174,
      "State": 2175,
      "ку": 2176,
      "▁об": 2177,
      "▁style": 2178,
      "sel": 2179,
      "▁away": 2180,
      "▁В": 2181,
      "ties": 2182,
      "▁today": 2183,
      "се": 2184,
      "Par": 2185,
      "And": 2186,
      "▁Cal": 2187,
      "Value": 2188,
      "▁rate": 2189,
      "Sh": 2190,
      "▁These": 2191,
      "oud": 2192,
      "uation": 2193,
      "ken": 2194,
      "▁University": 2195,
      "▁cas": 2196,
      "▁mo": 2197,
      "uel": 2198,
      "orld": 2199,
      "lor": 2200,
      "▁ti": 2201,
      "pat": 2202,
      "▁т": 2203,
      "sv": 2204,
      "▁في": 2205,
      "▁Ab": 2206,
      "▁lik": 2207,
      "ano": 2208,
      "({": 2209,
      "▁г": 2210,
      "ye": 2211,
      "rite": 2212,
      "ief": 2213,
      "}^{\\": 2214,
      "▁looking": 2215,
      "html": 2216,
      "▁Mr": 2217,
      "▁strong": 2218,
      "▁says": 2219,
      "ée": 2220,
      "ella": 2221,
      "ente": 2222,
      "ney": 2223,
      "▁least": 2224,
      "▁Can": 2225,
      "File": 2226,
      "vis": 2227,
      "▁link": 2228,
      "urch": 2229,
      "▁city": 2230,
      "▁thing": 2231,
      "chen": 2232,
      "ну": 2233,
      "▁why": 2234,
      "Add": 2235,
      "▁Par": 2236,
      "light": 2237,
      "▁known": 2238,
      "▁base": 2239,
      "▁With": 2240,
      "▁au": 2241,
      "ding": 2242,
      "script": 2243,
      "▁mit": 2244,
      "▁seg": 2245,
      "▁го": 2246,
      "ani": 2247,
      "▁мо": 2248,
      "án": 2249,
      "omet": 2250,
      "main": 2251,
      "All": 2252,
      "▁là": 2253,
      "▁State": 2254,
      "▁human": 2255,
      "▁government": 2256,
      "▁os": 2257,
      "ising": 2258,
      "state": 2259,
      "▁من": 2260,
      "▁Sch": 2261,
      "Le": 2262,
      "▁Ass": 2263,
      "▁major": 2264,
      "▁та": 2265,
      "fil": 2266,
      "ln": 2267,
      "ua": 2268,
      "post": 2269,
      "${": 2270,
      "▁то": 2271,
      "▁href": 2272,
      "cy": 2273,
      "((": 2274,
      "ca": 2275,
      "Qu": 2276,
      "▁mer": 2277,
      "▁ф": 2278,
      "ips": 2279,
      "▁become": 2280,
      "$\\": 2281,
      "▁Med": 2282,
      "▁pack": 2283,
      "▁members": 2284,
      "▁points": 2285,
      "raft": 2286,
      "elt": 2287,
      "▁pa": 2288,
      "my": 2289,
      "pen": 2290,
      "▁kh": 2291,
      "▁Des": 2292,
      "ios": 2293,
      "ille": 2294,
      "rap": 2295,
      "ena": 2296,
      "De": 2297,
      "▁+=": 2298,
      "▁quality": 2299,
      "osp": 2300,
      "▁Car": 2301,
      "▁pod": 2302,
      "▁further": 2303,
      "▁win": 2304,
      "////": 2305,
      "▁Christ": 2306,
      "room": 2307,
      "▁May": 2308,
      "▁block": 2309,
      "▁${": 2310,
      "Path": 2311,
      "ائ": 2312,
      "▁common": 2313,
      "Man": 2314,
      "********": 2315,
      "rown": 2316,
      "vo": 2317,
      "rix": 2318,
      "most": 2319,
      "▁ng": 2320,
      "iones": 2321,
      "}{\\": 2322,
      "ync": 2323,
      "▁relations": 2324,
      "▁ri": 2325,
      "▁price": 2326,
      "des": 2327,
      "ony": 2328,
      "▁К": 2329,
      "▁face": 2330,
      "ival": 2331,
      "▁Per": 2332,
      "▁community": 2333,
      "ين": 2334,
      "▁future": 2335,
      "alt": 2336,
      "df": 2337,
      "Box": 2338,
      "Get": 2339,
      "▁season": 2340,
      "avor": 2341,
      "ube": 2342,
      "tem": 2343,
      "▁mass": 2344,
      "со": 2345,
      "▁John": 2346,
      "igma": 2347,
      "▁across": 2348,
      "mon": 2349,
      "▁record": 2350,
      "▁hot": 2351,
      "▁во": 2352,
      "ster": 2353,
      "▁Ag": 2354,
      "▁site": 2355,
      "ii": 2356,
      "▁tell": 2357,
      "ogle": 2358,
      "asing": 2359,
      "▁night": 2360,
      "▁org": 2361,
      "ils": 2362,
      "}=\\": 2363,
      "ше": 2364,
      "uz": 2365,
      "ilt": 2366,
      "urope": 2367,
      ")(": 2368,
      "umb": 2369,
      "▁solution": 2370,
      "());": 2371,
      "fort": 2372,
      "▁Cor": 2373,
      "len": 2374,
      "лу": 2375,
      "▁seen": 2376,
      "▁polit": 2377,
      "sq": 2378,
      "ду": 2379,
      "▁moment": 2380,
      "▁bir": 2381,
      ")=": 2382,
      "iam": 2383,
      "▁online": 2384,
      "▁doing": 2385,
      "▁five": 2386,
      "With": 2387,
      "▁$(": 2388,
      "Event": 2389,
      "▁Ste": 2390,
      "Key": 2391,
      "▁ma": 2392,
      "())": 2393,
      "Bl": 2394,
      "ora": 2395,
      "ades": 2396,
      "ober": 2397,
      "ско": 2398,
      "ki": 2399,
      "▁visit": 2400,
      "сь": 2401,
      "▁Act": 2402,
      "come": 2403,
      "▁taken": 2404,
      "Or": 2405,
      "▁ist": 2406,
      "▁previous": 2407,
      "Index": 2408,
      "resh": 2409,
      "ols": 2410,
      "cho": 2411,
      "▁review": 2412,
      "▁near": 2413,
      "▁index": 2414,
      "▁needs": 2415,
      "▁wall": 2416,
      "▁My": 2417,
      "▁increase": 2418,
      "ali": 2419,
      "____": 2420,
      "ogn": 2421,
      "▁Ge": 2422,
      "▁von": 2423,
      "▁sam": 2424,
      "▁version": 2425,
      "lick": 2426,
      "▁inf": 2427,
      "▁Do": 2428,
      "oute": 2429,
      "▁Ne": 2430,
      "▁clear": 2431,
      "Ph": 2432,
      "▁Dr": 2433,
      "▁percent": 2434,
      "field": 2435,
      "▁Bo": 2436,
      "▁ten": 2437,
      "му": 2438,
      "unch": 2439,
      "ni": 2440,
      "▁Ed": 2441,
      "ba": 2442,
      "▁series": 2443,
      "▁women": 2444,
      "ried": 2445,
      "ette": 2446,
      "▁sens": 2447,
      "ın": 2448,
      "▁message": 2449,
      "▁ir": 2450,
      "uly": 2451,
      "ges": 2452,
      "▁million": 2453,
      "gl": 2454,
      "▁paper": 2455,
      "▁mi": 2456,
      "empt": 2457,
      "aur": 2458,
      "▁though": 2459,
      "▁United": 2460,
      "▁actually": 2461,
      "▁front": 2462,
      "astic": 2463,
      "▁Gu": 2464,
      "▁sil": 2465,
      "▁early": 2466,
      "iding": 2467,
      "▁war": 2468,
      "chan": 2469,
      "▁One": 2470,
      "▁Reg": 2471,
      "medi": 2472,
      "▁contact": 2473,
      "▁II": 2474,
      "minist": 2475,
      "ops": 2476,
      "▁American": 2477,
      "joy": 2478,
      "▁box": 2479,
      "mas": 2480,
      "========": 2481,
      "mark": 2482,
      "api": 2483,
      "▁\"\"": 2484,
      "па": 2485,
      "anks": 2486,
      "urb": 2487,
      "What": 2488,
      "▁ber": 2489,
      "▁ре": 2490,
      "▁.,": 2491,
      "Pre": 2492,
      "cm": 2493,
      "ham": 2494,
      "ged": 2495,
      "▁ap": 2496,
      "ball": 2497,
      "year": 2498,
      "ites": 2499,
      "▁Intern": 2500,
      "▁network": 2501,
      "ises": 2502,
      "▁heart": 2503,
      "iddle": 2504,
      "▁{\"": 2505,
      "▁production": 2506,
      "▁took": 2507,
      "▁Dis": 2508,
      "▁);": 2509,
      "▁...": 2510,
      "▁blue": 2511,
      "▁plant": 2512,
      "▁card": 2513,
      "inary": 2514,
      "▁///": 2515,
      "▁source": 2516,
      "aves": 2517,
      "ires": 2518,
      "num": 2519,
      "▁half": 2520,
      "ered": 2521,
      "dom": 2522,
      "oph": 2523,
      "uj": 2524,
      "▁q": 2525,
      "ias": 2526,
      "ще": 2527,
      "▁вы": 2528,
      "▁By": 2529,
      "▁Go": 2530,
      "tes": 2531,
      "IV": 2532,
      "No": 2533,
      "▁deal": 2534,
      "▁York": 2535,
      "▁arm": 2536,
      "lin": 2537,
      "ги": 2538,
      "Pr": 2539,
      "zen": 2540,
      "▁didn": 2541,
      "▁quant": 2542,
      "▁ever": 2543,
      "▁building": 2544,
      "▁pie": 2545,
      "▁Not": 2546,
      "▁Let": 2547,
      "▁months": 2548,
      "};": 2549,
      "▁systems": 2550,
      "ko": 2551,
      "(),": 2552,
      "ging": 2553,
      "▁God": 2554,
      "[]": 2555,
      "ese": 2556,
      "}-": 2557,
      "There": 2558,
      "▁из": 2559,
      "ala": 2560,
      "ши": 2561,
      "▁yet": 2562,
      "lim": 2563,
      "▁green": 2564,
      "▁Dep": 2565,
      "ски": 2566,
      "▁shows": 2567,
      ".;": 2568,
      "At": 2569,
      "ained": 2570,
      "▁blo": 2571,
      "pm": 2572,
      "times": 2573,
      "pan": 2574,
      "down": 2575,
      "ners": 2576,
      "Inter": 2577,
      "uit": 2578,
      "trans": 2579,
      "льно": 2580,
      "ns": 2581,
      "▁я": 2582,
      "▁protect": 2583,
      "▁Val": 2584,
      "iet": 2585,
      "db": 2586,
      "жи": 2587,
      "▁ground": 2588,
      "▁normal": 2589,
      "▁tax": 2590,
      "center": 2591,
      "▁woman": 2592,
      "▁growth": 2593,
      "ных": 2594,
      "▁Europe": 2595,
      "Group": 2596,
      "▁hours": 2597,
      "wa": 2598,
      "▁live": 2599,
      "▁according": 2600,
      "bit": 2601,
      "ima": 2602,
      "Int": 2603,
      "Sc": 2604,
      "▁Dec": 2605,
      "^{-": 2606,
      "info": 2607,
      "nes": 2608,
      "+\\": 2609,
      "Be": 2610,
      "сть": 2611,
      "▁cannot": 2612,
      "ti": 2613,
      "▁Aut": 2614,
      "▁ho": 2615,
      "▁->": 2616,
      "▁cy": 2617,
      "▁story": 2618,
      "▁search": 2619,
      "ivo": 2620,
      "▁mis": 2621,
      "▁started": 2622,
      "▁те": 2623,
      "mary": 2624,
      "▁||": 2625,
      "ario": 2626,
      "▁Pre": 2627,
      "point": 2628,
      "Out": 2629,
      "mm": 2630,
      "▁comes": 2631,
      "▁girl": 2632,
      "зи": 2633,
      "content": 2634,
      "\"),": 2635,
      "▁six": 2636,
      "▁ма": 2637,
      "code": 2638,
      "са": 2639,
      "▁double": 2640,
      "cast": 2641,
      "Set": 2642,
      "/*": 2643,
      "ben": 2644,
      "▁getting": 2645,
      "▁bal": 2646,
      "ту": 2647,
      "hel": 2648,
      "Des": 2649,
      "rie": 2650,
      "top": 2651,
      "atory": 2652,
      "▁management": 2653,
      "▁foot": 2654,
      "ening": 2655,
      "page": 2656,
      "\"><": 2657,
      "▁prop": 2658,
      "elle": 2659,
      "▁media": 2660,
      "urg": 2661,
      "▁М": 2662,
      "just": 2663,
      "rial": 2664,
      "}(\\": 2665,
      "ере": 2666,
      "▁share": 2667,
      "▁National": 2668,
      "▁Ser": 2669,
      "▁taking": 2670,
      "rav": 2671,
      "▁có": 2672,
      "jpg": 2673,
      "Ad": 2674,
      "iti": 2675,
      "▁Part": 2676,
      "see": 2677,
      "group": 2678,
      "▁etc": 2679,
      "ining": 2680,
      "▁Mod": 2681,
      "atal": 2682,
      "▁sch": 2683,
      "▁enjoy": 2684,
      "мен": 2685,
      "▁java": 2686,
      "ags": 2687,
      "▁Em": 2688,
      "eq": 2689,
      "elling": 2690,
      "\\\\": 2691,
      "▁City": 2692,
      "▁bed": 2693,
      "Of": 2694,
      "▁Af": 2695,
      "ply": 2696,
      "▁А": 2697,
      "Service": 2698,
      "▁film": 2699,
      "▁areas": 2700,
      "▁web": 2701,
      "▁World": 2702,
      "▁lat": 2703,
      "Result": 2704,
      "[\"": 2705,
      "▁ut": 2706,
      "▁}^{": 2707,
      "rip": 2708,
      "▁region": 2709,
      "hing": 2710,
      "aged": 2711,
      "cel": 2712,
      "▁),": 2713,
      "bon": 2714,
      "iting": 2715,
      "nav": 2716,
      "ты": 2717,
      "▁Rep": 2718,
      "igen": 2719,
      "▁Comp": 2720,
      "Log": 2721,
      "▁entre": 2722,
      "▁।": 2723,
      "▁()": 2724,
      "aging": 2725,
      "........": 2726,
      "▁dos": 2727,
      "asi": 2728,
      "▁third": 2729,
      "▁words": 2730,
      "vi": 2731,
      "▁да": 2732,
      "▁Jan": 2733,
      "▁almost": 2734,
      "▁technology": 2735,
      "odes": 2736,
      "▁что": 2737,
      "▁States": 2738,
      "▁global": 2739,
      "▁issue": 2740,
      "agn": 2741,
      "ouch": 2742,
      "New": 2743,
      "ные": 2744,
      "▁After": 2745,
      "exp": 2746,
      "obile": 2747,
      "▁Trans": 2748,
      "ky": 2749,
      "Def": 2750,
      "▁Now": 2751,
      "Sp": 2752,
      "▁rad": 2753,
      "xy": 2754,
      "лю": 2755,
      "▁od": 2756,
      "hand": 2757,
      "▁match": 2758,
      "ret": 2759,
      "▁Bar": 2760,
      "▁held": 2761,
      "\").": 2762,
      "bed": 2763,
      "▁entire": 2764,
      "▁music": 2765,
      "Fr": 2766,
      "check": 2767,
      "▁South": 2768,
      "▁Н": 2769,
      "ride": 2770,
      "▁/**": 2771,
      "ona": 2772,
      "itter": 2773,
      "▁Fl": 2774,
      "▁ol": 2775,
      "ao": 2776,
      "zi": 2777,
      "ador": 2778,
      "tre": 2779,
      "▁road": 2780,
      "▁bad": 2781,
      "zer": 2782,
      "rows": 2783,
      "▁Will": 2784,
      "uh": 2785,
      "át": 2786,
      "ér": 2787,
      "▁Pres": 2788,
      "▁grad": 2789,
      "▁Gener": 2790,
      "▁travel": 2791,
      "▁fire": 2792,
      "▁miss": 2793,
      "▁Count": 2794,
      "▁minutes": 2795,
      "kn": 2796,
      "▁gas": 2797,
      "oj": 2798,
      "anch": 2799,
      "вы": 2800,
      "▁screen": 2801,
      "▁via": 2802,
      "So": 2803,
      "▁Mon": 2804,
      "ello": 2805,
      "!!": 2806,
      "Over": 2807,
      "nov": 2808,
      "▁Int": 2809,
      "Class": 2810,
      "iy": 2811,
      "\",\"": 2812,
      "True": 2813,
      "пи": 2814,
      "▁sym": 2815,
      "Not": 2816,
      "▁пре": 2817,
      "Layout": 2818,
      "▁needed": 2819,
      "▁death": 2820,
      "▁Um": 2821,
      "▁unit": 2822,
      "▁List": 2823,
      "ector": 2824,
      "osph": 2825,
      "model": 2826,
      "▁nom": 2827,
      "▁og": 2828,
      "pass": 2829,
      "▁member": 2830,
      "Count": 2831,
      "▁tu": 2832,
      "ні": 2833,
      "▁star": 2834,
      "ées": 2835,
      "NA": 2836,
      "▁ax": 2837,
      "▁Ob": 2838,
      "inst": 2839,
      "Field": 2840,
      "ola": 2841,
      "▁mas": 2842,
      "▁average": 2843,
      "mes": 2844,
      "▁mal": 2845,
      "version": 2846,
      "uses": 2847,
      "▁office": 2848,
      "ensive": 2849,
      "het": 2850,
      "▁↑": 2851,
      "zo": 2852,
      "ного": 2853,
      "++)": 2854,
      "▁]": 2855,
      "pa": 2856,
      "mt": 2857,
      "cos": 2858,
      "▁Mc": 2859,
      "▁photo": 2860,
      "bor": 2861,
      "Ste": 2862,
      "зо": 2863,
      "▁deb": 2864,
      "ige": 2865,
      "ный": 2866,
      "жа": 2867,
      "▁oil": 2868,
      "▁forward": 2869,
      "ной": 2870,
      "aya": 2871,
      "else": 2872,
      "▁website": 2873,
      "▁се": 2874,
      "▁este": 2875,
      "▁lines": 2876,
      "ika": 2877,
      "▁park": 2878,
      "▁Inter": 2879,
      "▁Pe": 2880,
      "▁hon": 2881,
      "vol": 2882,
      "▁è": 2883,
      "%%": 2884,
      "ych": 2885,
      "II": 2886,
      "▁wait": 2887,
      "▁Acc": 2888,
      "▁pet": 2889,
      "ris": 2890,
      "▁bill": 2891,
      "run": 2892,
      "▁Sm": 2893,
      "rest": 2894,
      "Map": 2895,
      "▁Sim": 2896,
      "ady": 2897,
      "click": 2898,
      "ete": 2899,
      "System": 2900,
      "▁mais": 2901,
      "php": 2902,
      "▁Pa": 2903,
      "▁watch": 2904,
      "▁nam": 2905,
      "▁modern": 2906,
      "▁Mark": 2907,
      "iday": 2908,
      "Line": 2909,
      "ria": 2910,
      "Su": 2911,
      "mar": 2912,
      "▁likely": 2913,
      "ès": 2914,
      "▁af": 2915,
      "▁email": 2916,
      "car": 2917,
      "▁Park": 2918,
      "▁:=": 2919,
      "▁https": 2920,
      "icles": 2921,
      "▁location": 2922,
      "▁де": 2923,
      "md": 2924,
      "oon": 2925,
      ")}": 2926,
      "▁Log": 2927,
      "iques": 2928,
      "But": 2929,
      "▁бо": 2930,
      "▁ago": 2931,
      "ère": 2932,
      "ku": 2933,
      "ming": 2934,
      "▁О": 2935,
      "▁Art": 2936,
      "ras": 2937,
      "▁für": 2938,
      "▁fast": 2939,
      "▁party": 2940,
      "▁===": 2941,
      "anning": 2942,
      "Is": 2943,
      "▁pi": 2944,
      ")$.": 2945,
      "▁Ver": 2946,
      "▁update": 2947,
      "inn": 2948,
      "▁hope": 2949,
      "ociety": 2950,
      "Ab": 2951,
      "$-": 2952,
      "ensity": 2953,
      "▁couple": 2954,
      "▁Б": 2955,
      "ela": 2956,
      "▁More": 2957,
      "ees": 2958,
      "▁Sw": 2959,
      "ira": 2960,
      "▁risk": 2961,
      "▁Aug": 2962,
      "▁attack": 2963,
      "▁favor": 2964,
      "▁cry": 2965,
      "▁news": 2966,
      "sm": 2967,
      "▁Cour": 2968,
      "▁India": 2969,
      "Up": 2970,
      "Ed": 2971,
      "▁article": 2972,
      "▁everyone": 2973,
      "▁са": 2974,
      "▁Russ": 2975,
      "▁models": 2976,
      "▁ви": 2977,
      "cor": 2978,
      "ем": 2979,
      "▁friends": 2980,
      "▁North": 2981,
      "▁Д": 2982,
      "щи": 2983,
      "sec": 2984,
      "cover": 2985,
      "});": 2986,
      "▁micro": 2987,
      "rate": 2988,
      "▁stop": 2989,
      "Delta": 2990,
      "Ent": 2991,
      "iva": 2992,
      "▁})": 2993,
      "▁mil": 2994,
      "▁events": 2995,
      "anger": 2996,
      "My": 2997,
      "oe": 2998,
      "▁lib": 2999,
      "пе": 3000,
      "../": 3001,
      "▁store": 3002,
      "kay": 3003,
      "▁additional": 3004,
      "▁<-": 3005,
      "tty": 3006,
      "▁outside": 3007,
      "aily": 3008,
      "▁reported": 3009,
      "▁Cons": 3010,
      ")-": 3011,
      "▁бы": 3012,
      "är": 3013,
      "vas": 3014,
      "▁het": 3015,
      "▁это": 3016,
      "▁sn": 3017,
      "iger": 3018,
      "▁countries": 3019,
      "Code": 3020,
      "▁Ac": 3021,
      "########": 3022,
      "}}\\": 3023,
      "status": 3024,
      "▁High": 3025,
      "ights": 3026,
      "tab": 3027,
      "▁ja": 3028,
      "▁。": 3029,
      "Dis": 3030,
      "▁een": 3031,
      "').": 3032,
      "sa": 3033,
      "agement": 3034,
      "avy": 3035,
      "▁Т": 3036,
      "omb": 3037,
      "▁West": 3038,
      "▁ple": 3039,
      "ista": 3040,
      "▁κ": 3041,
      "atives": 3042,
      "▁для": 3043,
      "▁Red": 3044,
      "▁bank": 3045,
      "▁pal": 3046,
      "ств": 3047,
      ".-": 3048,
      "▁financial": 3049,
      "▁increased": 3050,
      "▁images": 3051,
      "fty": 3052,
      "can": 3053,
      "istics": 3054,
      "▁round": 3055,
      "▁inside": 3056,
      "▁details": 3057,
      "▁coming": 3058,
      "▁Est": 3059,
      "▁decision": 3060,
      "ega": 3061,
      "▁Rec": 3062,
      "▁Oct": 3063,
      "One": 3064,
      "build": 3065,
      "▁но": 3066,
      "uer": 3067,
      "▁force": 3068,
      "▁popular": 3069,
      "▁evidence": 3070,
      "ют": 3071,
      "▁hands": 3072,
      "._": 3073,
      "▁band": 3074,
      "show": 3075,
      "▁transfer": 3076,
      "▁His": 3077,
      "▁•": 3078,
      "▁feature": 3079,
      "▁School": 3080,
      "▁ме": 3081,
      "▁From": 3082,
      "cha": 3083,
      "▁Some": 3084,
      "orem": 3085,
      "▁бу": 3086,
      "▁soon": 3087,
      "vey": 3088,
      "це": 3089,
      "▁[]:": 3090,
      "▁policy": 3091,
      "▁ста": 3092,
      "▁α": 3093,
      "alle": 3094,
      "rim": 3095,
      "La": 3096,
      "▁Har": 3097,
      "sim": 3098,
      "El": 3099,
      "▁status": 3100,
      "▁Р": 3101,
      "unk": 3102,
      "uge": 3103,
      "▁Get": 3104,
      "▁Stud": 3105,
      "▁education": 3106,
      "ares": 3107,
      "gi": 3108,
      "lebr": 3109,
      "kl": 3110,
      "▁http": 3111,
      "player": 3112,
      "▁saw": 3113,
      "▁раз": 3114,
      "oo": 3115,
      "ité": 3116,
      "\\|": 3117,
      "Bar": 3118,
      "▁nothing": 3119,
      "agon": 3120,
      "▁states": 3121,
      "Reg": 3122,
      "gu": 3123,
      "anti": 3124,
      "ental": 3125,
      "di": 3126,
      "ondon": 3127,
      "vest": 3128,
      "”.": 3129,
      "Math": 3130,
      "▁nov": 3131,
      "Point": 3132,
      "rid": 3133,
      "▁Sci": 3134,
      "▁security": 3135,
      "rat": 3136,
      "▁San": 3137,
      "rak": 3138,
      "▁sound": 3139,
      "▁platform": 3140,
      "wise": 3141,
      "▁Us": 3142,
      "▁__": 3143,
      "▁multiple": 3144,
      "ql": 3145,
      "▁\\%": 3146,
      "arter": 3147,
      "▁activities": 3148,
      "▁please": 3149,
      "Info": 3150,
      "Sub": 3151,
      "▁};": 3152,
      "dev": 3153,
      "adas": 3154,
      "Ser": 3155,
      "ря": 3156,
      "▁slow": 3157,
      "▁(!": 3158,
      "xi": 3159,
      "▁official": 3160,
      "▁Er": 3161,
      "emic": 3162,
      "itation": 3163,
      "▁Our": 3164,
      "Per": 3165,
      "▁June": 3166,
      "Control": 3167,
      "▁Dav": 3168,
      "Click": 3169,
      "▁town": 3170,
      "▁distance": 3171,
      "▁phone": 3172,
      "нов": 3173,
      "oi": 3174,
      "band": 3175,
      "▁Ang": 3176,
      "▁Her": 3177,
      "web": 3178,
      "wood": 3179,
      "}_{\\": 3180,
      "▁Pat": 3181,
      "▁Your": 3182,
      "Trans": 3183,
      "▁Don": 3184,
      "cs": 3185,
      "Windows": 3186,
      "▁om": 3187,
      "Me": 3188,
      "▁computer": 3189,
      "▁'./": 3190,
      "▁transport": 3191,
      "▁bud": 3192,
      "▁১": 3193,
      "▁trust": 3194,
      "би": 3195,
      "▁**": 3196,
      "una": 3197,
      "ald": 3198,
      "▁ст": 3199,
      "tn": 3200,
      "▁sav": 3201,
      "oring": 3202,
      "▁Inst": 3203,
      "▁Brit": 3204,
      "isions": 3205,
      "reet": 3206,
      "}},": 3207,
      "Che": 3208,
      "▁\"\"\"": 3209,
      "ota": 3210,
      "▁collection": 3211,
      "▁international": 3212,
      "▁bul": 3213,
      "▁political": 3214,
      "bra": 3215,
      "amin": 3216,
      "akan": 3217,
      "ran": 3218,
      "▁March": 3219,
      "comp": 3220,
      "open": 3221,
      "▁np": 3222,
      "}+\\": 3223,
      "rl": 3224,
      "phone": 3225,
      "jet": 3226,
      "▁capital": 3227,
      "▁Ent": 3228,
      "lib": 3229,
      "han": 3230,
      "isa": 3231,
      "omen": 3232,
      "▁War": 3233,
      "▁drug": 3234,
      "▁Inc": 3235,
      "ford": 3236,
      "▁Ber": 3237,
      "ami": 3238,
      "isation": 3239,
      "▁Ant": 3240,
      "wer": 3241,
      "▁First": 3242,
      "aby": 3243,
      "▁Fig": 3244,
      "sin": 3245,
      "dat": 3246,
      "unic": 3247,
      "node": 3248,
      "/>": 3249,
      "urt": 3250,
      "ds": 3251,
      "Build": 3252,
      "▁Port": 3253,
      "▁Def": 3254,
      "bi": 3255,
      "▁mode": 3256,
      "raz": 3257,
      "▁Off": 3258,
      "gar": 3259,
      "▁April": 3260,
      "▁software": 3261,
      "▁situation": 3262,
      "oman": 3263,
      "▁Sub": 3264,
      "▁President": 3265,
      "ago": 3266,
      "cia": 3267,
      "▁save": 3268,
      "illed": 3269,
      "▁、": 3270,
      "▁Just": 3271,
      "▁ba": 3272,
      "▁meeting": 3273,
      "','": 3274,
      "si": 3275,
      "jo": 3276,
      "}-\\": 3277,
      "▁House": 3278,
      "spring": 3279,
      "▁margin": 3280,
      "▁involved": 3281,
      "▁English": 3282,
      "▁ur": 3283,
      "▁bes": 3284,
      "ор": 3285,
      "SON": 3286,
      "▁note": 3287,
      "▁solutions": 3288,
      "▁ç": 3289,
      "gn": 3290,
      "▁rock": 3291,
      "▁sea": 3292,
      "aled": 3293,
      "aling": 3294,
      "ется": 3295,
      "cell": 3296,
      "agen": 3297,
      "▁mid": 3298,
      "last": 3299,
      "▁statement": 3300,
      "](": 3301,
      "▁Ke": 3302,
      "▁kom": 3303,
      "wide": 3304,
      "▁sold": 3305,
      "Att": 3306,
      "▁mu": 3307,
      "Acc": 3308,
      "izer": 3309,
      "▁compared": 3310,
      "pid": 3311,
      "▁Work": 3312,
      "Em": 3313,
      "▁brand": 3314,
      "but": 3315,
      "▁July": 3316,
      "▁themselves": 3317,
      "▁ready": 3318,
      "cz": 3319,
      "▁pun": 3320,
      "rad": 3321,
      "aux": 3322,
      "nen": 3323,
      "▁Of": 3324,
      "▁ро": 3325,
      "base": 3326,
      "▁hit": 3327,
      "▁economic": 3328,
      "och": 3329,
      "▁па": 3330,
      "rs": 3331,
      "▁lic": 3332,
      "▁charge": 3333,
      "oma": 3334,
      "eval": 3335,
      "]{": 3336,
      "lich": 3337,
      "Te": 3338,
      "([": 3339,
      "▁stage": 3340,
      "illa": 3341,
      "▁Health": 3342,
      "uth": 3343,
      "▁Black": 3344,
      "▁\":": 3345,
      "cap": 3346,
      "game": 3347,
      "▁Austral": 3348,
      "▁Department": 3349,
      "▁za": 3350,
      "ji": 3351,
      "more": 3352,
      "▁Ret": 3353,
      "▁aus": 3354,
      "▁operation": 3355,
      "▁Mat": 3356,
      "▁release": 3357,
      "▁police": 3358,
      "▁Text": 3359,
      "has": 3360,
      "▁morning": 3361,
      "eps": 3362,
      "cher": 3363,
      "▁Since": 3364,
      "ses": 3365,
      "▁names": 3366,
      "soft": 3367,
      "arden": 3368,
      "iler": 3369,
      ")^{": 3370,
      "aly": 3371,
      "ls": 3372,
      "▁remember": 3373,
      "▁hi": 3374,
      "▁currently": 3375,
      "▁і": 3376,
      "ска": 3377,
      "nya": 3378,
      "number": 3379,
      "▁Out": 3380,
      "▁Mus": 3381,
      "[\\": 3382,
      "pol": 3383,
      "▁towards": 3384,
      "▁ва": 3385,
      "▁Feb": 3386,
      "ila": 3387,
      "nu": 3388,
      "▁Air": 3389,
      "ende": 3390,
      "▁leaders": 3391,
      "▁goal": 3392,
      "/**": 3393,
      "▁Net": 3394,
      "▁Hol": 3395,
      "▁sich": 3396,
      "ema": 3397,
      "iki": 3398,
      "▁ot": 3399,
      "▁increasing": 3400,
      "▁attempt": 3401,
      "ба": 3402,
      "▁weeks": 3403,
      "▁projects": 3404,
      ",\\": 3405,
      "ancy": 3406,
      "▁America": 3407,
      "▁Here": 3408,
      "▁Sol": 3409,
      "▁shot": 3410,
      "}.": 3411,
      "▁looks": 3412,
      "zt": 3413,
      "▁rights": 3414,
      "▁August": 3415,
      "anner": 3416,
      "▁nicht": 3417,
      "asons": 3418,
      "aste": 3419,
      "▁Fe": 3420,
      "fa": 3421,
      "▁zero": 3422,
      "uan": 3423,
      "▁И": 3424,
      "▁trade": 3425,
      "▁Bro": 3426,
      "▁Court": 3427,
      "}}{": 3428,
      "eller": 3429,
      "Style": 3430,
      "▁Data": 3431,
      "▁motion": 3432,
      "▁wide": 3433,
      "She": 3434,
      "space": 3435,
      "▁International": 3436,
      "▁ta": 3437,
      "fit": 3438,
      "ogen": 3439,
      "▁County": 3440,
      "▁vir": 3441,
      "▁Test": 3442,
      "rier": 3443,
      "hol": 3444,
      "ker": 3445,
      "▁limited": 3446,
      "▁figure": 3447,
      "eli": 3448,
      "су": 3449,
      "▁China": 3450,
      "Char": 3451,
      "roy": 3452,
      "▁Up": 3453,
      "oding": 3454,
      "▁amb": 3455,
      "▁Set": 3456,
      "orge": 3457,
      "▁View": 3458,
      "long": 3459,
      "ды": 3460,
      "ém": 3461,
      "▁September": 3462,
      "▁[%": 3463,
      "▁London": 3464,
      "ester": 3465,
      "dy": 3466,
      "isi": 3467,
      "edia": 3468,
      "▁yourself": 3469,
      "▁tro": 3470,
      "▁camera": 3471,
      "▁„": 3472,
      "▁gave": 3473,
      "▁organiz": 3474,
      "▁General": 3475,
      "▁sales": 3476,
      "▁fair": 3477,
      "▁Direct": 3478,
      "▁prot": 3479,
      "▁،": 3480,
      "aks": 3481,
      "▁goes": 3482,
      "ously": 3483,
      "oz": 3484,
      "▁See": 3485,
      "▁Die": 3486,
      "”,": 3487,
      "ке": 3488,
      "\"))": 3489,
      "anda": 3490,
      "(-": 3491,
      "▁worked": 3492,
      "iring": 3493,
      ")=\\": 3494,
      "format": 3495,
      "▁Mor": 3496,
      "▁Ben": 3497,
      "dim": 3498,
      "amera": 3499,
      "▁della": 3500,
      "aren": 3501,
      "▁Form": 3502,
      "▁((": 3503,
      "kin": 3504,
      "▁Techn": 3505,
      "amily": 3506,
      "▁/*": 3507,
      "▁Bank": 3508,
      "▁club": 3509,
      "ship": 3510,
      "close": 3511,
      "▁While": 3512,
      "▁len": 3513,
      "▁tod": 3514,
      "Go": 3515,
      "ians": 3516,
      "Gener": 3517,
      "лі": 3518,
      "лен": 3519,
      "rum": 3520,
      "////////": 3521,
      "sor": 3522,
      "first": 3523,
      "▁под": 3524,
      "▁Service": 3525,
      "ная": 3526,
      "osis": 3527,
      "(){": 3528,
      "▁Center": 3529,
      "▁January": 3530,
      "psilon": 3531,
      "lam": 3532,
      "Us": 3533,
      "gest": 3534,
      "▁Il": 3535,
      "ний": 3536,
      "pace": 3537,
      "жно": 3538,
      "hal": 3539,
      "▁Japan": 3540,
      "avax": 3541,
      "▁letter": 3542,
      "▁King": 3543,
      "Pan": 3544,
      "weight": 3545,
      "▁carry": 3546,
      "▁central": 3547,
      "▁Di": 3548,
      "▁кото": 3549,
      "adow": 3550,
      "▁fight": 3551,
      "oti": 3552,
      "core": 3553,
      "las": 3554,
      "▁Government": 3555,
      "▁brought": 3556,
      "enge": 3557,
      "▁Sen": 3558,
      "eds": 3559,
      "ungen": 3560,
      "▁skills": 3561,
      "▁($": 3562,
      "▁wrong": 3563,
      "▁Mal": 3564,
      "etic": 3565,
      "():": 3566,
      "<<": 3567,
      "▁си": 3568,
      "grad": 3569,
      "eline": 3570,
      "▁Day": 3571,
      "▁rule": 3572,
      "▁py": 3573,
      "sol": 3574,
      "gs": 3575,
      "iro": 3576,
      "▁á": 3577,
      "▁uses": 3578,
      "об": 3579,
      "rec": 3580,
      "Read": 3581,
      "ша": 3582,
      "iber": 3583,
      "▁October": 3584,
      "▁Pal": 3585,
      "miss": 3586,
      "utive": 3587,
      "▁president": 3588,
      "▁allowed": 3589,
      "!--": 3590,
      "▁metal": 3591,
      "▁presented": 3592,
      ")$,": 3593,
      "▁presence": 3594,
      "……": 3595,
      "▁Indian": 3596,
      "enty": 3597,
      "har": 3598,
      "▁sale": 3599,
      "aka": 3600,
      "▁nie": 3601,
      "▁November": 3602,
      "anta": 3603,
      "▁spring": 3604,
      "▁Det": 3605,
      "он": 3606,
      "aven": 3607,
      "After": 3608,
      "amm": 3609,
      "bin": 3610,
      "ции": 3611,
      "▁completely": 3612,
      "▁Bi": 3613,
      "▁Table": 3614,
      "▁tut": 3615,
      "▁ú": 3616,
      "icas": 3617,
      "lem": 3618,
      "▁square": 3619,
      "▁auto": 3620,
      "]);": 3621,
      "▁Vol": 3622,
      "▁emb": 3623,
      "▁True": 3624,
      "nie": 3625,
      "ów": 3626,
      "Do": 3627,
      "raf": 3628,
      "acer": 3629,
      "ха": 3630,
      "▁notice": 3631,
      "card": 3632,
      "▁Group": 3633,
      "▁storage": 3634,
      "berg": 3635,
      "▁Sal": 3636,
      "▁credit": 3637,
      "win": 3638,
      "rive": 3639,
      "anto": 3640,
      "▁safe": 3641,
      "▁sust": 3642,
      "}}$": 3643,
      "▁remove": 3644,
      "lu": 3645,
      "house": 3646,
      "That": 3647,
      "▁touch": 3648,
      "▁daily": 3649,
      "▁ли": 3650,
      "▁paid": 3651,
      "▁December": 3652,
      "▁movie": 3653,
      "▁все": 3654,
      "▁Cap": 3655,
      "antes": 3656,
      "▁aux": 3657,
      "Rep": 3658,
      "▁Main": 3659,
      "▁tom": 3660,
      "▁station": 3661,
      "chi": 3662,
      "ael": 3663,
      "▁showed": 3664,
      "rio": 3665,
      "counter": 3666,
      "rote": 3667,
      "****************": 3668,
      "▁ko": 3669,
      "▁·": 3670,
      "idos": 3671,
      "▁\"\\": 3672,
      "ство": 3673,
      "Now": 3674,
      "rome": 3675,
      "ação": 3676,
      "ccc": 3677,
      "▁kon": 3678,
      "________": 3679,
      "under": 3680,
      "ez": 3681,
      "▁Ma": 3682,
      "ní": 3683,
      "press": 3684,
      "▁Google": 3685,
      "▁Sa": 3686,
      "Let": 3687,
      "▁Tra": 3688,
      "bu": 3689,
      "▁»": 3690,
      "▁Г": 3691,
      "van": 3692,
      "▁Research": 3693,
      "▁Company": 3694,
      "вер": 3695,
      "(&": 3696,
      "akt": 3697,
      "▁ин": 3698,
      "спо": 3699,
      "▁Develop": 3700,
      "ів": 3701,
      "iner": 3702,
      "aba": 3703,
      "ruary": 3704,
      "actory": 3705,
      "▁Post": 3706,
      "▁closed": 3707,
      "▁fol": 3708,
      "azione": 3709,
      "▁smart": 3710,
      "▁decided": 3711,
      "гра": 3712,
      "▁Met": 3713,
      "▁mobile": 3714,
      "▁paint": 3715,
      "oom": 3716,
      "▁Super": 3717,
      "▁Law": 3718,
      "dr": 3719,
      "try": 3720,
      "yr": 3721,
      "lik": 3722,
      "▁dead": 3723,
      "▁eight": 3724,
      "iny": 3725,
      "olf": 3726,
      "=\"#": 3727,
      "▁<=": 3728,
      "▁jo": 3729,
      "▁\"$": 3730,
      "▁Mag": 3731,
      "▁plans": 3732,
      "lands": 3733,
      "ál": 3734,
      "тель": 3735,
      "▁Dan": 3736,
      "▁ба": 3737,
      "▁hospital": 3738,
      "ova": 3739,
      "call": 3740,
      "▁followed": 3741,
      "▁Dem": 3742,
      "▁২": 3743,
      "▁Char": 3744,
      "omas": 3745,
      "peed": 3746,
      "sch": 3747,
      "Co": 3748,
      "▁че": 3749,
      "▁Rem": 3750,
      "▁Serv": 3751,
      "ться": 3752,
      "stream": 3753,
      "▁Class": 3754,
      "▁birth": 3755,
      "eting": 3756,
      "ju": 3757,
      "▁Sam": 3758,
      "▁пере": 3759,
      "▁Arm": 3760,
      "▁European": 3761,
      "лы": 3762,
      "▁wat": 3763,
      "inger": 3764,
      "Am": 3765,
      "▁photos": 3766,
      "abb": 3767,
      "▁Fin": 3768,
      "sg": 3769,
      "▁nu": 3770,
      "рова": 3771,
      "▁Hel": 3772,
      "▁Street": 3773,
      "Fl": 3774,
      "Web": 3775,
      "ров": 3776,
      "ying": 3777,
      "تر": 3778,
      "▁www": 3779,
      "itar": 3780,
      "asa": 3781,
      "▁Je": 3782,
      "*/": 3783,
      "'.": 3784,
      "▁Bel": 3785,
      "Link": 3786,
      "lose": 3787,
      "▁Paul": 3788,
      "Param": 3789,
      "▁uns": 3790,
      "email": 3791,
      "▁expand": 3792,
      "▁adult": 3793,
      "▁fab": 3794,
      "▁secret": 3795,
      "▁(\"": 3796,
      "aten": 3797,
      "etime": 3798,
      "free": 3799,
      "▁float": 3800,
      "▁showing": 3801,
      ".\\": 3802,
      "▁released": 3803,
      "▁turned": 3804,
      "ipe": 3805,
      "▁как": 3806,
      "▁David": 3807,
      "▁Program": 3808,
      "▁heard": 3809,
      "cn": 3810,
      "▁Mart": 3811,
      "iden": 3812,
      "мы": 3813,
      "▁Na": 3814,
      "▁mir": 3815,
      "Check": 3816,
      "▁Les": 3817,
      "ці": 3818,
      "▁straight": 3819,
      "▁wife": 3820,
      "Ne": 3821,
      "сы": 3822,
      "osa": 3823,
      "▁Home": 3824,
      "uto": 3825,
      "▁>=": 3826,
      "Route": 3827,
      "▁och": 3828,
      "▁Prof": 3829,
      "actor": 3830,
      "▁wild": 3831,
      "▁pp": 3832,
      "▁Commission": 3833,
      "▁pap": 3834,
      "▁Board": 3835,
      "ori": 3836,
      "fin": 3837,
      "▁Use": 3838,
      "oday": 3839,
      "▁leaves": 3840,
      "imo": 3841,
      "oria": 3842,
      "▁sz": 3843,
      "▁£": 3844,
      "Black": 3845,
      "ville": 3846,
      "uster": 3847,
      "▁ru": 3848,
      "▁mix": 3849,
      "Create": 3850,
      "▁mm": 3851,
      "}^{-": 3852,
      "pred": 3853,
      "▁tab": 3854,
      "▁boy": 3855,
      "▁Web": 3856,
      ",'": 3857,
      "iders": 3858,
      "▁iz": 3859,
      "udi": 3860,
      "▁ay": 3861,
      "ois": 3862,
      "▁Sec": 3863,
      "ted": 3864,
      "================": 3865,
      "'),": 3866,
      "lock": 3867,
      "ander": 3868,
      "ban": 3869,
      ">>": 3870,
      "▁Mac": 3871,
      "▁У": 3872,
      "▁medic": 3873,
      "▁\\%$": 3874,
      "▁planning": 3875,
      "itz": 3876,
      "aughter": 3877,
      "▁France": 3878,
      "Http": 3879,
      "oir": 3880,
      "рав": 3881,
      "▁monitor": 3882,
      "▁sources": 3883,
      "kg": 3884,
      "▁ве": 3885,
      "Call": 3886,
      "Star": 3887,
      "▁Ill": 3888,
      "pes": 3889,
      "gt": 3890,
      "▁din": 3891,
      "pet": 3892,
      "гу": 3893,
      "▁holding": 3894,
      "cin": 3895,
      "onom": 3896,
      "|\\": 3897,
      "▁Rev": 3898,
      "lı": 3899,
      "▁alone": 3900,
      "▁Att": 3901,
      ")+": 3902,
      ")]": 3903,
      "▁Other": 3904,
      "urity": 3905,
      "▁Si": 3906,
      "▁News": 3907,
      "▁spot": 3908,
      "igu": 3909,
      "iente": 3910,
      "▁Minister": 3911,
      "▁minimum": 3912,
      "otic": 3913,
      "Open": 3914,
      ".'": 3915,
      "▁Green": 3916,
      "txt": 3917,
      "пу": 3918,
      "kh": 3919,
      "▁Del": 3920,
      "ikan": 3921,
      "cro": 3922,
      "▁Face": 3923,
      "Post": 3924,
      "▁Nor": 3925,
      "onic": 3926,
      "▁exactly": 3927,
      "▁East": 3928,
      "▁Council": 3929,
      "▁Any": 3930,
      "White": 3931,
      "emp": 3932,
      "▁Well": 3933,
      "▁бе": 3934,
      "▁transition": 3935,
      "uri": 3936,
      "nam": 3937,
      "▁California": 3938,
      "ded": 3939,
      "ele": 3940,
      "▁Press": 3941,
      "rend": 3942,
      "Ref": 3943,
      "▁Book": 3944,
      "Fe": 3945,
      ">(": 3946,
      "front": 3947,
      "сле": 3948,
      "бе": 3949,
      "▁Over": 3950,
      "▁Check": 3951,
      "anz": 3952,
      "▁-->": 3953,
      "ading": 3954,
      "▁huge": 3955,
      "▁interview": 3956,
      "river": 3957,
      "▁¿": 3958,
      "^{*": 3959,
      "Na": 3960,
      "▁blog": 3961,
      "▁Es": 3962,
      "▁Canada": 3963,
      "▁Loc": 3964,
      "lob": 3965,
      "iller": 3966,
      "▁Sund": 3967,
      "▁§": 3968,
      "(=": 3969,
      "eles": 3970,
      "rd": 3971,
      "▁British": 3972,
      "ід": 3973,
      "\\{": 3974,
      "▁ratio": 3975,
      "ears": 3976,
      "})$": 3977,
      "google": 3978,
      "---": 3979,
      "odo": 3980,
      "▁anti": 3981,
      "▁reports": 3982,
      "ства": 3983,
      "▁February": 3984,
      "▁km": 3985,
      "▁foreign": 3986,
      "▁Mer": 3987,
      "▁surround": 3988,
      "▁drop": 3989,
      "▁По": 3990,
      "▁heavy": 3991,
      "First": 3992,
      "▁č": 3993,
      "▁communication": 3994,
      "hent": 3995,
      "▁White": 3996,
      "▁сво": 3997,
      "▁db": 3998,
      "aria": 3999,
      "tro": 4000,
      "▁Product": 4001,
      "▁highest": 4002,
      "unity": 4003,
      "cu": 4004,
      "End": 4005,
      "▁electro": 4006,
      "Br": 4007,
      "▁Please": 4008,
      "▁một": 4009,
      "ech": 4010,
      "▁Sing": 4011,
      "ät": 4012,
      "eld": 4013,
      "▁Power": 4014,
      "▁\\\"": 4015,
      "▁Mad": 4016,
      "align": 4017,
      "▁Name": 4018,
      "фи": 4019,
      "▁ни": 4020,
      "▁Sk": 4021,
      "▁Rel": 4022,
      "party": 4023,
      "'],": 4024,
      "well": 4025,
      "бы": 4026,
      "▁Los": 4027,
      "ae": 4028,
      "▁chemical": 4029,
      "▁Elect": 4030,
      "bur": 4031,
      "▁кон": 4032,
      "entes": 4033,
      "aga": 4034,
      "▁appears": 4035,
      "iat": 4036,
      "imer": 4037,
      "▁Public": 4038,
      "▁Back": 4039,
      "▁College": 4040,
      "▁су": 4041,
      "aman": 4042,
      "▁covered": 4043,
      "▁cold": 4044,
      "▁Business": 4045,
      "estion": 4046,
      "▁Cam": 4047,
      "▁sor": 4048,
      "tex": 4049,
      "ako": 4050,
      "ressed": 4051,
      "?\"": 4052,
      "▁trial": 4053,
      "зу": 4054,
      "тов": 4055,
      "▁ми": 4056,
      ".).": 4057,
      "asta": 4058,
      "▁Id": 4059,
      "rot": 4060,
      "▁reasons": 4061,
      "ца": 4062,
      "big": 4063,
      "▁largest": 4064,
      "▁threat": 4065,
      "}:": 4066,
      "▁James": 4067,
      "ono": 4068,
      "▁tele": 4069,
      "gin": 4070,
      "▁kar": 4071,
      "Equ": 4072,
      "rawn": 4073,
      "▁ses": 4074,
      "atin": 4075,
      "▁Rich": 4076,
      "▁previously": 4077,
      "▁Av": 4078,
      "нии": 4079,
      "▁strategy": 4080,
      "▁ok": 4081,
      "▁race": 4082,
      "▁hundred": 4083,
      "▁\",": 4084,
      "olar": 4085,
      "▁sed": 4086,
      "sen": 4087,
      "▁fix": 4088,
      "document": 4089,
      "hy": 4090,
      "++;": 4091,
      "pop": 4092,
      "foot": 4093,
      "isher": 4094,
      "ным": 4095,
      "▁Time": 4096,
      "▁Gl": 4097,
      "bf": 4098,
      "hav": 4099,
      "▁England": 4100,
      "SO": 4101,
      "▁upper": 4102,
      "▁jed": 4103,
      "сте": 4104,
      "▁Open": 4105,
      "зы": 4106,
      "▁ring": 4107,
      "▁fuel": 4108,
      "▁Science": 4109,
      "you": 4110,
      "water": 4111,
      "They": 4112,
      "▁\"./": 4113,
      "▁Wed": 4114,
      "▁amazing": 4115,
      "iser": 4116,
      "enz": 4117,
      "чен": 4118,
      "screen": 4119,
      "▁Ann": 4120,
      "▁shared": 4121,
      "▁Most": 4122,
      "▁Ev": 4123,
      "scale": 4124,
      "Av": 4125,
      "▁Friday": 4126,
      "▁Cr": 4127,
      "▁Every": 4128,
      "▁agreement": 4129,
      "▁Washington": 4130,
      "enter": 4131,
      "▁Gold": 4132,
      "▁Leg": 4133,
      "▁expert": 4134,
      "Our": 4135,
      "▁budget": 4136,
      "▁Sun": 4137,
      "Ass": 4138,
      "▁vs": 4139,
      "▁ча": 4140,
      "▁{\\": 4141,
      "▁się": 4142,
      "▁Ze": 4143,
      "late": 4144,
      "кт": 4145,
      "▁так": 4146,
      "▁['": 4147,
      "▁responsible": 4148,
      "Min": 4149,
      "▁Water": 4150,
      "eme": 4151,
      "प्र": 4152,
      "utt": 4153,
      "▁sv": 4154,
      "▁served": 4155,
      "aki": 4156,
      "Part": 4157,
      "ische": 4158,
      "Each": 4159,
      "del": 4160,
      "lay": 4161,
      "▁Jack": 4162,
      "▁Design": 4163,
      "▁thank": 4164,
      "▁fans": 4165,
      "awa": 4166,
      "▁vide": 4167,
      "чески": 4168,
      "nb": 4169,
      "▁Office": 4170,
      "▁пра": 4171,
      "▁military": 4172,
      "▁Fil": 4173,
      "▁pictures": 4174,
      "▁French": 4175,
      "ков": 4176,
      "obj": 4177,
      "▁în": 4178,
      "itness": 4179,
      "▁Engine": 4180,
      "Nav": 4181,
      "tha": 4182,
      "▁alle": 4183,
      "▁Jes": 4184,
      "▁sto": 4185,
      "▁gra": 4186,
      "aran": 4187,
      "arc": 4188,
      "▁ş": 4189,
      "ça": 4190,
      "про": 4191,
      "▁polic": 4192,
      "▁Project": 4193,
      "▁…": 4194,
      "▁ö": 4195,
      "▁radio": 4196,
      "▁Good": 4197,
      "▁billion": 4198,
      "ioni": 4199,
      "isk": 4200,
      "ín": 4201,
      "Width": 4202,
      "iche": 4203,
      "olo": 4204,
      "чно": 4205,
      "▁Road": 4206,
      "ствен": 4207,
      "▁Fre": 4208,
      "ım": 4209,
      "▁tur": 4210,
      "▁од": 4211,
      "▁Ка": 4212,
      "▁Note": 4213,
      "hens": 4214,
      "▁driver": 4215,
      "uv": 4216,
      "alah": 4217,
      "▁sport": 4218,
      "▁Hand": 4219,
      "▁River": 4220,
      "▁Ins": 4221,
      "▁Mo": 4222,
      "▁trip": 4223,
      "Ret": 4224,
      "▁Institute": 4225,
      "▁schools": 4226,
      "▁Africa": 4227,
      "abe": 4228,
      "▁families": 4229,
      "▁Sil": 4230,
      "road": 4231,
      "▁],": 4232,
      "Mr": 4233,
      "aset": 4234,
      "white": 4235,
      "▁Found": 4236,
      "star": 4237,
      "▁File": 4238,
      "▁Windows": 4239,
      "▁или": 4240,
      "▁Grand": 4241,
      "▁fi": 4242,
      "acks": 4243,
      "▁Land": 4244,
      "▁End": 4245,
      "icit": 4246,
      "▁fashion": 4247,
      "▁ш": 4248,
      "Ut": 4249,
      "allow": 4250,
      "▁ž": 4251,
      "▁ak": 4252,
      "▁хо": 4253,
      "pu": 4254,
      "rian": 4255,
      "▁pra": 4256,
      "▁Bay": 4257,
      "▁пред": 4258,
      "▁category": 4259,
      "▁Color": 4260,
      "otimes": 4261,
      "eno": 4262,
      "iga": 4263,
      "care": 4264,
      "▁Arch": 4265,
      "▁Sum": 4266,
      "▁rom": 4267,
      "▁Л": 4268,
      "uns": 4269,
      "}>": 4270,
      "-(": 4271,
      "▁god": 4272,
      "▁Equ": 4273,
      "▁Phil": 4274,
      "▁Franc": 4275,
      "oul": 4276,
      "▁san": 4277,
      "▁Association": 4278,
      "fs": 4279,
      "▁Great": 4280,
      "▁Long": 4281,
      "▁Chem": 4282,
      "▁steel": 4283,
      "▁protected": 4284,
      "▁alleg": 4285,
      "sey": 4286,
      "aron": 4287,
      "▁pros": 4288,
      "service": 4289,
      "▁opening": 4290,
      "antic": 4291,
      "▁З": 4292,
      "%;": 4293,
      "▁Bas": 4294,
      "▁flag": 4295,
      "▁Secret": 4296,
      "▁Church": 4297,
      "▁Rob": 4298,
      "cup": 4299,
      "bel": 4300,
      "home": 4301,
      "▁š": 4302,
      "cr": 4303,
      "ран": 4304,
      "▁Committee": 4305,
      "gal": 4306,
      "▁Sunday": 4307,
      "▁plane": 4308,
      "mem": 4309,
      "radi": 4310,
      "▁Australia": 4311,
      "aire": 4312,
      "▁ze": 4313,
      "▁Tex": 4314,
      "▁stars": 4315,
      "▁х": 4316,
      "▁Array": 4317,
      "▁^": 4318,
      "▁civil": 4319,
      "▁ON": 4320,
      "................": 4321,
      "(\"/": 4322,
      "▁cash": 4323,
      "▁hotel": 4324,
      "bert": 4325,
      "▁Facebook": 4326,
      "ulo": 4327,
      "▁Saturday": 4328,
      "arian": 4329,
      "▁Christmas": 4330,
      "▁Miss": 4331,
      "rey": 4332,
      "▁Information": 4333,
      "▁Top": 4334,
      "aus": 4335,
      "Net": 4336,
      "▁Development": 4337,
      "▁gel": 4338,
      "oli": 4339,
      "xe": 4340,
      "▁Anal": 4341,
      "▁esp": 4342,
      "isl": 4343,
      "SA": 4344,
      "person": 4345,
      "Property": 4346,
      "war": 4347,
      "▁Uh": 4348,
      "▁info": 4349,
      "izz": 4350,
      "▁forces": 4351,
      "Here": 4352,
      "▁Hot": 4353,
      "textwidth": 4354,
      "aires": 4355,
      "▁Po": 4356,
      "undo": 4357,
      "▁Kh": 4358,
      "▁scene": 4359,
      "▁waste": 4360,
      "▁gro": 4361,
      "ós": 4362,
      "▁fan": 4363,
      "бу": 4364,
      "float": 4365,
      "`,": 4366,
      "▁gal": 4367,
      "ан": 4368,
      "iano": 4369,
      "▁prime": 4370,
      "aming": 4371,
      "example": 4372,
      "кра": 4373,
      "▁Cle": 4374,
      "вет": 4375,
      "asket": 4376,
      "тив": 4377,
      "uda": 4378,
      "▁Lo": 4379,
      "aha": 4380,
      "▁internet": 4381,
      "rar": 4382,
      "▁Services": 4383,
      "▁Under": 4384,
      "▁Stand": 4385,
      "▁died": 4386,
      "lee": 4387,
      "▁rare": 4388,
      "aro": 4389,
      "aca": 4390,
      "Project": 4391,
      "тельно": 4392,
      "▁ban": 4393,
      "▁dass": 4394,
      "cut": 4395,
      "▁Tur": 4396,
      "arks": 4397,
      "▁happened": 4398,
      "▁Yes": 4399,
      "Bo": 4400,
      "▁trav": 4401,
      "▁Stat": 4402,
      "▁Alex": 4403,
      "\\\"": 4404,
      "▁industrial": 4405,
      "▁Tom": 4406,
      "uis": 4407,
      "nergy": 4408,
      "imb": 4409,
      "dot": 4410,
      "▁Gen": 4411,
      "here": 4412,
      "▁Ba": 4413,
      "▁Li": 4414,
      "▁III": 4415,
      "▁Bre": 4416,
      "▁Monday": 4417,
      "Builder": 4418,
      "[:": 4419,
      "сси": 4420,
      "\"></": 4421,
      "Mat": 4422,
      "osh": 4423,
      "\"/>": 4424,
      "<?": 4425,
      "▁stories": 4426,
      "▁Two": 4427,
      "idas": 4428,
      "Player": 4429,
      "▁nach": 4430,
      "icks": 4431,
      "lets": 4432,
      "Top": 4433,
      "ws": 4434,
      "Ge": 4435,
      "sche": 4436,
      "Max": 4437,
      "▁Chinese": 4438,
      "lan": 4439,
      "lab": 4440,
      "isse": 4441,
      "Off": 4442,
      "▁>>": 4443,
      "▁sports": 4444,
      "Pol": 4445,
      "Cal": 4446,
      "Can": 4447,
      "▁Lou": 4448,
      "▁ле": 4449,
      "▁YouTube": 4450,
      "▁Life": 4451,
      "ungs": 4452,
      "atan": 4453,
      "arp": 4454,
      "▁Bill": 4455,
      "рт": 4456,
      "elles": 4457,
      "mult": 4458,
      "control": 4459,
      "\"\"": 4460,
      "▁tan": 4461,
      "▁Lord": 4462,
      "apa": 4463,
      "▁Mont": 4464,
      "▁mol": 4465,
      "▁Roy": 4466,
      "▁{}": 4467,
      "bour": 4468,
      "▁Max": 4469,
      "ijn": 4470,
      "ция": 4471,
      "▁insurance": 4472,
      "drop": 4473,
      "▁tub": 4474,
      "yan": 4475,
      "oration": 4476,
      "▁opened": 4477,
      "▁Tem": 4478,
      "▁Е": 4479,
      "▁implementation": 4480,
      "▁Build": 4481,
      "Ke": 4482,
      "▁Den": 4483,
      "▁rub": 4484,
      "▁Report": 4485,
      "▁south": 4486,
      "▁Mary": 4487,
      "oco": 4488,
      "▁Spring": 4489,
      "▁(\\": 4490,
      "▁Vector": 4491,
      "Ver": 4492,
      "lines": 4493,
      "▁agent": 4494,
      "Base": 4495,
      "▁Many": 4496,
      "▁Vir": 4497,
      "▁opinion": 4498,
      "▁lang": 4499,
      "▁Code": 4500,
      "став": 4501,
      "ща": 4502,
      "▁Show": 4503,
      "▁Bet": 4504,
      "ston": 4505,
      "Rem": 4506,
      "iture": 4507,
      "ango": 4508,
      "enta": 4509,
      "▁exchange": 4510,
      "▁Bu": 4511,
      "pie": 4512,
      "site": 4513,
      "▁Social": 4514,
      "inde": 4515,
      ".:": 4516,
      "▁Pan": 4517,
      "▁peu": 4518,
      "▁На": 4519,
      "▁toward": 4520,
      "▁Year": 4521,
      "omic": 4522,
      "Game": 4523,
      "(_": 4524,
      "▁Pet": 4525,
      "▁::": 4526,
      "▁fer": 4527,
      "▁Bur": 4528,
      "▁developing": 4529,
      "▁Management": 4530,
      "▁Society": 4531,
      "urban": 4532,
      "▁prev": 4533,
      "_\\": 4534,
      "Sw": 4535,
      "▁nuclear": 4536,
      "################": 4537,
      "▁Gal": 4538,
      "hetic": 4539,
      "('/": 4540,
      "▁Read": 4541,
      "▁facilities": 4542,
      "cht": 4543,
      "(`": 4544,
      "▁Director": 4545,
      "▁regarding": 4546,
      "▁Mass": 4547,
      "rypt": 4548,
      "aje": 4549,
      "▁Central": 4550,
      "plete": 4551,
      "%%%%": 4552,
      "ius": 4553,
      "сли": 4554,
      "▁Best": 4555,
      "inet": 4556,
      "ums": 4557,
      "▁ц": 4558,
      "Server": 4559,
      "▁launch": 4560,
      ")),": 4561,
      "black": 4562,
      "ativ": 4563,
      "▁зна": 4564,
      "▁Mil": 4565,
      "▁Why": 4566,
      "mos": 4567,
      "ifer": 4568,
      "▁Union": 4569,
      "inu": 4570,
      "doc": 4571,
      "uma": 4572,
      "▁Nov": 4573,
      "'))": 4574,
      "lat": 4575,
      "=\"/": 4576,
      "жен": 4577,
      "▁Smith": 4578,
      "▁han": 4579,
      "hm": 4580,
      "▁Ф": 4581,
      "ном": 4582,
      "Enter": 4583,
      "▁ком": 4584,
      "vet": 4585,
      "▁Wil": 4586,
      "▁Flor": 4587,
      "▁William": 4588,
      "fast": 4589,
      "king": 4590,
      "▁Michael": 4591,
      "ву": 4592,
      "inen": 4593,
      "Search": 4594,
      "edit": 4595,
      "zie": 4596,
      "Update": 4597,
      "ходи": 4598,
      "▁speak": 4599,
      "$(": 4600,
      "words": 4601,
      "Don": 4602,
      "Port": 4603,
      "▁whatever": 4604,
      "Work": 4605,
      "Last": 4606,
      "istan": 4607,
      "▁mission": 4608,
      "▁которы": 4609,
      "Book": 4610,
      "▁administr": 4611,
      "inh": 4612,
      "зова": 4613,
      "▁leads": 4614,
      "Sim": 4615,
      "▁Nat": 4616,
      "umi": 4617,
      "▁syn": 4618,
      "▁wir": 4619,
      "=(": 4620,
      "isch": 4621,
      "▁truth": 4622,
      "▁ul": 4623,
      "iten": 4624,
      ".</": 4625,
      "▁Tor": 4626,
      "▁lif": 4627,
      "▁Club": 4628,
      "omin": 4629,
      "Left": 4630,
      "▁Game": 4631,
      "▁Organ": 4632,
      "riz": 4633,
      "рі": 4634,
      "▁Further": 4635,
      "▁Paris": 4636,
      "abs": 4637,
      "Cell": 4638,
      "ск": 4639,
      "tag": 4640,
      "▁рабо": 4641,
      "▁Camp": 4642,
      "▁seconds": 4643,
      "oga": 4644,
      "ahr": 4645,
      "▁Find": 4646,
      "▁má": 4647,
      "▁advice": 4648,
      "pert": 4649,
      "▁German": 4650,
      "ят": 4651,
      "▁mai": 4652,
      "alo": 4653,
      "ocks": 4654,
      "▁confirm": 4655,
      "».": 4656,
      "▁calls": 4657,
      "▁George": 4658,
      "iri": 4659,
      "▁Republic": 4660,
      "▁Et": 4661,
      "▁Vis": 4662,
      "ogy": 4663,
      "▁sides": 4664,
      "Art": 4665,
      "Child": 4666,
      "uni": 4667,
      "▁Prov": 4668,
      "▁Journal": 4669,
      "▁Start": 4670,
      "▁---": 4671,
      "rence": 4672,
      "amer": 4673,
      "▁жи": 4674,
      "▁changing": 4675,
      "▁Russian": 4676,
      "files": 4677,
      "('.": 4678,
      "ей": 4679,
      "ві": 4680,
      "mal": 4681,
      "▁ку": 4682,
      ":]": 4683,
      "utter": 4684,
      ".$": 4685,
      "▁interior": 4686,
      "Dr": 4687,
      "Change": 4688,
      "}$-": 4689,
      "aa": 4690,
      "real": 4691,
      "owa": 4692,
      "kar": 4693,
      "▁Acad": 4694,
      "▁Hen": 4695,
      "▁Type": 4696,
      "Body": 4697,
      "eni": 4698,
      "▁holds": 4699,
      "Red": 4700,
      "▁Microsoft": 4701,
      "}/": 4702,
      "▁же": 4703,
      "Next": 4704,
      "▁Play": 4705,
      "ême": 4706,
      "▁Star": 4707,
      "▁Sy": 4708,
      "▁\"-": 4709,
      "assets": 4710,
      "cat": 4711,
      "xd": 4712,
      "oral": 4713,
      "зна": 4714,
      "Hz": 4715,
      "Gr": 4716,
      "▁Frank": 4717,
      "!\"": 4718,
      "burg": 4719,
      "hot": 4720,
      "eless": 4721,
      "clear": 4722,
      "▁Mount": 4723,
      "▁Review": 4724,
      "▁Are": 4725,
      "▁Der": 4726,
      "hu": 4727,
      "Please": 4728,
      "▁cars": 4729,
      "bro": 4730,
      "?”": 4731,
      "▁portion": 4732,
      "▁обра": 4733,
      "▁Mel": 4734,
      "Some": 4735,
      "ак": 4736,
      "▁Germany": 4737,
      "imm": 4738,
      "]:": 4739,
      "~\\": 4740,
      "ской": 4741,
      "▁Education": 4742,
      "▁Dig": 4743,
      "pub": 4744,
      "▁People": 4745,
      "ím": 4746,
      "Home": 4747,
      "wan": 4748,
      "dt": 4749,
      "▁$-": 4750,
      "support": 4751,
      "icing": 4752,
      "▁лю": 4753,
      "▁AS": 4754,
      "▁''": 4755,
      "aan": 4756,
      "=>": 4757,
      "▁Control": 4758,
      "iana": 4759,
      "▁Image": 4760,
      "night": 4761,
      "More": 4762,
      "ís": 4763,
      "▁Model": 4764,
      "aken": 4765,
      "oni": 4766,
      "▁Person": 4767,
      "ное": 4768,
      "▁waiting": 4769,
      "мер": 4770,
      "▁Island": 4771,
      "blue": 4772,
      "▁Rad": 4773,
      "▁Thomas": 4774,
      "▁Internet": 4775,
      "▁pink": 4776,
      "▁Big": 4777,
      "▁Hall": 4778,
      "Lo": 4779,
      "Cor": 4780,
      "life": 4781,
      "%.": 4782,
      "▁Twitter": 4783,
      "}`": 4784,
      "▁Christian": 4785,
      "▁Key": 4786,
      "▁Texas": 4787,
      "▁leaving": 4788,
      "erd": 4789,
      "uli": 4790,
      "▁\"/": 4791,
      "liche": 4792,
      "acle": 4793,
      "▁Its": 4794,
      "]$": 4795,
      "ек": 4796,
      "▁Android": 4797,
      "▁regions": 4798,
      "bb": 4799,
      "▁dit": 4800,
      "adr": 4801,
      "Mar": 4802,
      ">();": 4803,
      "▁Amazon": 4804,
      "▁Blue": 4805,
      "argo": 4806,
      "jar": 4807,
      "ющи": 4808,
      "agg": 4809,
      "rium": 4810,
      ".*": 4811,
      "▁дру": 4812,
      "▁Fire": 4813,
      "▁Free": 4814,
      "grade": 4815,
      "▁Plan": 4816,
      "▁Box": 4817,
      "▁football": 4818,
      "▁Lake": 4819,
      "▁administration": 4820,
      "ims": 4821,
      "Total": 4822,
      "▁Fund": 4823,
      "ski": 4824,
      "udd": 4825,
      "vez": 4826,
      "▁ру": 4827,
      "▁League": 4828,
      "▁Return": 4829,
      "▁Number": 4830,
      "▁Author": 4831,
      "(\".": 4832,
      ")))": 4833,
      "yo": 4834,
      "▁Ha": 4835,
      "▁Second": 4836,
      "▁Mot": 4837,
      "▁он": 4838,
      "oda": 4839,
      "▁Lin": 4840,
      "▁truck": 4841,
      "▁ди": 4842,
      "▁Congress": 4843,
      "article": 4844,
      "eria": 4845,
      "oxy": 4846,
      "Phone": 4847,
      "rich": 4848,
      "▁Console": 4849,
      "tx": 4850,
      "▁рас": 4851,
      "osc": 4852,
      "▁offering": 4853,
      "▁Vi": 4854,
      "▁mixed": 4855,
      "▁kil": 4856,
      "system": 4857,
      "▁weekend": 4858,
      "▁village": 4859,
      "лько": 4860,
      "Sl": 4861,
      "ongo": 4862,
      "alla": 4863,
      "▁Dev": 4864,
      "▁classic": 4865,
      "ння": 4866,
      "▁Pay": 4867,
      "▁markets": 4868,
      "Car": 4869,
      "zym": 4870,
      "*}": 4871,
      "▁excited": 4872,
      "best": 4873,
      "uls": 4874,
      "▁despite": 4875,
      "▁Mach": 4876,
      "Card": 4877,
      "▁Yeah": 4878,
      "▁Run": 4879,
      "Spec": 4880,
      "ент": 4881,
      "eros": 4882,
      ")/": 4883,
      "ème": 4884,
      "ographic": 4885,
      "kom": 4886,
      "Case": 4887,
      "rog": 4888,
      "Hel": 4889,
      "uta": 4890,
      "▁Ro": 4891,
      "aine": 4892,
      "(\"#": 4893,
      "▁Brown": 4894,
      "ismo": 4895,
      "▁arrest": 4896,
      "was": 4897,
      "▁Federal": 4898,
      "▁$(\\": 4899,
      "blic": 4900,
      "▁Econom": 4901,
      "▁Call": 4902,
      "▁Tuesday": 4903,
      "▁destroy": 4904,
      "$$": 4905,
      "▁Robert": 4906,
      "▁island": 4907,
      "awn": 4908,
      "iar": 4909,
      "сту": 4910,
      "▁fear": 4911,
      "▁ans": 4912,
      "after": 4913,
      "▁Tim": 4914,
      "▁Energy": 4915,
      "▁сто": 4916,
      "$/": 4917,
      "eur": 4918,
      "▁election": 4919,
      "auto": 4920,
      "}^": 4921,
      "iste": 4922,
      "cas": 4923,
      "▁Like": 4924,
      "friend": 4925,
      "▁technique": 4926,
      "▁Cook": 4927,
      "▁recorded": 4928,
      "fire": 4929,
      "'>": 4930,
      "▁Apple": 4931,
      "▁Kar": 4932,
      "▁Str": 4933,
      "zz": 4934,
      "gers": 4935,
      "sten": 4936,
      "ła": 4937,
      "ograf": 4938,
      "weet": 4939,
      "▁Fort": 4940,
      "вто": 4941,
      "▁Card": 4942,
      "iem": 4943,
      "ekt": 4944,
      "гда": 4945,
      "▁African": 4946,
      "ści": 4947,
      "▁Make": 4948,
      "▁Ho": 4949,
      "kit": 4950,
      "Sm": 4951,
      "▁Comput": 4952,
      "▁soc": 4953,
      "Unit": 4954,
      "▁Wood": 4955,
      "%,": 4956,
      "▁Ter": 4957,
      "nic": 4958,
      "}}{\\": 4959,
      "ptr": 4960,
      "▁incl": 4961,
      "она": 4962,
      "ahi": 4963,
      "▁policies": 4964,
      "▁lit": 4965,
      "▁battery": 4966,
      "gun": 4967,
      "▁Western": 4968,
      "▁representation": 4969,
      "▁Wal": 4970,
      "кой": 4971,
      "▁<!--": 4972,
      "▁pred": 4973,
      "▁fourth": 4974,
      "Cons": 4975,
      "▁Pass": 4976,
      "xc": 4977,
      "ania": 4978,
      "▁Mas": 4979,
      "мі": 4980,
      "▁Uk": 4981,
      "▁Mult": 4982,
      "▁Base": 4983,
      "III": 4984,
      "eh": 4985,
      "shop": 4986,
      "fall": 4987,
      "▁Enter": 4988,
      "▁nine": 4989,
      "▁Russia": 4990,
      "eti": 4991,
      "uke": 4992,
      "bas": 4993,
      "▁Prote": 4994,
      "▁Real": 4995,
      "atar": 4996,
      "Direct": 4997,
      "quer": 4998,
      "mut": 4999,
      "▁Cards": 5000,
      "▁Cast": 5001,
      "See": 5002,
      "▁Men": 5003,
      "aja": 5004,
      "'])": 5005,
      "atu": 5006,
      "prise": 5007,
      "onal": 5008,
      "▁Lab": 5009,
      "gb": 5010,
      "mic": 5011,
      "__(": 5012,
      "▁hier": 5013,
      "▁Bal": 5014,
      "▁Kore": 5015,
      "▁officials": 5016,
      "azine": 5017,
      "▁Peter": 5018,
      "▁Down": 5019,
      "kins": 5020,
      "▁mob": 5021,
      "erman": 5022,
      "▁pandemic": 5023,
      "ego": 5024,
      ":\"": 5025,
      "anie": 5026,
      "dem": 5027,
      "▁exit": 5028,
      "force": 5029,
      "Ac": 5030,
      "okes": 5031,
      "▁wy": 5032,
      "▁adj": 5033,
      "▁Francis": 5034,
      "inf": 5035,
      "Note": 5036,
      "ronic": 5037,
      "▁Secretary": 5038,
      "omy": 5039,
      "▁Link": 5040,
      "▁Carol": 5041,
      "nab": 5042,
      ")[": 5043,
      "power": 5044,
      "ích": 5045,
      "▁\\&": 5046,
      "▁drawing": 5047,
      "▁Jo": 5048,
      "пре": 5049,
      "▁Cas": 5050,
      "ads": 5051,
      "conf": 5052,
      "▁Son": 5053,
      "▁Du": 5054,
      "▁Trump": 5055,
      "Supp": 5056,
      "▁agreed": 5057,
      "▁agency": 5058,
      "▁ос": 5059,
      "▁Food": 5060,
      "###": 5061,
      "▁History": 5062,
      "▁Exper": 5063,
      "▁gun": 5064,
      "▁Instagram": 5065,
      "rb": 5066,
      "??": 5067,
      "▁Rock": 5068,
      "▁homes": 5069,
      "@@": 5070,
      "vin": 5071,
      "▁воз": 5072,
      "▁messages": 5073,
      "itan": 5074,
      "antly": 5075,
      "。”": 5076,
      "▁Nav": 5077,
      "ija": 5078,
      "▁tested": 5079,
      "uries": 5080,
      "Pe": 5081,
      "nik": 5082,
      "ского": 5083,
      "iza": 5084,
      "''": 5085,
      ",-": 5086,
      "рга": 5087,
      "▁raw": 5088,
      "▁Э": 5089,
      "According": 5090,
      "▁Line": 5091,
      "▁Full": 5092,
      "ovid": 5093,
      "pers": 5094,
      "mb": 5095,
      "▁pic": 5096,
      "▁residents": 5097,
      "▁revenue": 5098,
      "xf": 5099,
      "▁вре": 5100,
      "▁Method": 5101,
      "pin": 5102,
      "oro": 5103,
      "match": 5104,
      "isters": 5105,
      "ную": 5106,
      "Video": 5107,
      "▁'/": 5108,
      "aked": 5109,
      "▁Lim": 5110,
      "berry": 5111,
      "lad": 5112,
      "media": 5113,
      "▁Ap": 5114,
      ".\",": 5115,
      "▁killed": 5116,
      "stein": 5117,
      "▁Jose": 5118,
      "Mon": 5119,
      "avas": 5120,
      "▁Hy": 5121,
      "▁rig": 5122,
      "тер": 5123,
      "àn": 5124,
      "▁interests": 5125,
      "▁Only": 5126,
      "▁html": 5127,
      "inos": 5128,
      "каза": 5129,
      "andon": 5130,
      "▁incident": 5131,
      "bul": 5132,
      "▁poll": 5133,
      "▁Ca": 5134,
      "▁его": 5135,
      "video": 5136,
      "Po": 5137,
      "▁Such": 5138,
      "mann": 5139,
      "ancer": 5140,
      "▁dol": 5141,
      "loss": 5142,
      "ña": 5143,
      "▁Chicago": 5144,
      "اع": 5145,
      "▁Sou": 5146,
      "▁Tre": 5147,
      "▁tar": 5148,
      "▁talent": 5149,
      "▁{@": 5150,
      "▁responsibility": 5151,
      "▁Sl": 5152,
      "▁Where": 5153,
      "нд": 5154,
      "▁Soc": 5155,
      "isc": 5156,
      "▁Chief": 5157,
      "▁investigation": 5158,
      "}\"": 5159,
      "▁Special": 5160,
      "при": 5161,
      "из": 5162,
      "▁Prom": 5163,
      "▁și": 5164,
      "role": 5165,
      "▁Non": 5166,
      "▁пер": 5167,
      "▁Point": 5168,
      "Var": 5169,
      "uts": 5170,
      "▁mail": 5171,
      "▁Action": 5172,
      "]]": 5173,
      "Mark": 5174,
      "▁Care": 5175,
      "green": 5176,
      "▁degrees": 5177,
      "них": 5178,
      "cf": 5179,
      "GO": 5180,
      "▁Ak": 5181,
      "▁ale": 5182,
      "▁watching": 5183,
      "▁assistance": 5184,
      "▁Old": 5185,
      "▁Eu": 5186,
      "illi": 5187,
      "▁ак": 5188,
      "tim": 5189,
      "▁Gi": 5190,
      "▁Invest": 5191,
      "rr": 5192,
      "▁issued": 5193,
      "▁Bul": 5194,
      "wi": 5195,
      "acher": 5196,
      "ells": 5197,
      "stat": 5198,
      "▁Las": 5199,
      "dec": 5200,
      "▁Az": 5201,
      "▁ek": 5202,
      "▁ig": 5203,
      "▁Py": 5204,
      "essions": 5205,
      "▁vote": 5206,
      "\"));": 5207,
      "▁Vict": 5208,
      "ности": 5209,
      "aved": 5210,
      "мя": 5211,
      "Auto": 5212,
      "▁Team": 5213,
      "////////////////": 5214,
      "▁Thank": 5215,
      "family": 5216,
      "istor": 5217,
      "▁confirmed": 5218,
      "bow": 5219,
      "Yes": 5220,
      "aza": 5221,
      "▁accounts": 5222,
      "hou": 5223,
      "▁facts": 5224,
      "▁Por": 5225,
      "▁Ut": 5226,
      "▁photograph": 5227,
      "stra": 5228,
      "Que": 5229,
      "▁Earth": 5230,
      "got": 5231,
      "ления": 5232,
      "▁Sand": 5233,
      "▁Univers": 5234,
      "▁Opt": 5235,
      "▁Jew": 5236,
      "▁Scott": 5237,
      "▁Light": 5238,
      "Dat": 5239,
      "▁Technology": 5240,
      "emon": 5241,
      "▁Ref": 5242,
      "child": 5243,
      "▁Mur": 5244,
      "ник": 5245,
      "kat": 5246,
      "kes": 5247,
      "vy": 5248,
      "▁tank": 5249,
      "pdf": 5250,
      "▁Hill": 5251,
      "кі": 5252,
      "acion": 5253,
      "▁Head": 5254,
      "хи": 5255,
      "ар": 5256,
      "lass": 5257,
      "hl": 5258,
      "▁bin": 5259,
      "auf": 5260,
      "pc": 5261,
      "тся": 5262,
      "alf": 5263,
      "ician": 5264,
      "▁IV": 5265,
      "▁Pen": 5266,
      "▁recovery": 5267,
      "▁Ч": 5268,
      "▁Today": 5269,
      "▁\"+": 5270,
      "▁Way": 5271,
      "west": 5272,
      "▁Lear": 5273,
      "Term": 5274,
      "▁Vari": 5275,
      "sz": 5276,
      "▁Florida": 5277,
      "▁Rest": 5278,
      "▁Hon": 5279,
      "Hi": 5280,
      "▁Network": 5281,
      "▁Tour": 5282,
      "▁Gar": 5283,
      "▁Roman": 5284,
      "}_": 5285,
      "▁Arab": 5286,
      "Stat": 5287,
      "XX": 5288,
      "стро": 5289,
      "asse": 5290,
      "Abstract": 5291,
      "anh": 5292,
      "▁ж": 5293,
      "▁Foundation": 5294,
      "fd": 5295,
      ".[": 5296,
      "▁му": 5297,
      "▁dont": 5298,
      "▁charged": 5299,
      "ге": 5300,
      "▁[\"": 5301,
      "onna": 5302,
      "Dev": 5303,
      "▁Who": 5304,
      "нь": 5305,
      "Your": 5306,
      "је": 5307,
      "ред": 5308,
      "▁decrease": 5309,
      "▁dollars": 5310,
      "▁Cur": 5311,
      "▁Human": 5312,
      ")}\\": 5313,
      "▁Adv": 5314,
      "sd": 5315,
      "▁).": 5316,
      "▁Museum": 5317,
      "нима": 5318,
      "▁tea": 5319,
      "▁Cost": 5320,
      "uten": 5321,
      "▁crisis": 5322,
      "idi": 5323,
      "pool": 5324,
      "▁Ra": 5325,
      "!!!": 5326,
      "ilo": 5327,
      "ých": 5328,
      "igt": 5329,
      "▁Sar": 5330,
      "▁bah": 5331,
      "▁jest": 5332,
      "}}^{": 5333,
      "▁Richard": 5334,
      "▁vehicles": 5335,
      "uzz": 5336,
      "▁=\\": 5337,
      "▁Cup": 5338,
      "omer": 5339,
      "По": 5340,
      "▁Cre": 5341,
      "Grid": 5342,
      "security": 5343,
      "▁broken": 5344,
      "▁Louis": 5345,
      "ência": 5346,
      "▁Ltd": 5347,
      "▁мен": 5348,
      "▁consideration": 5349,
      "▁ο": 5350,
      "models": 5351,
      "▁Java": 5352,
      "oor": 5353,
      "▁Train": 5354,
      "▁Global": 5355,
      "▁Map": 5356,
      "eren": 5357,
      "dam": 5358,
      "▁cel": 5359,
      "eding": 5360,
      "▁Ken": 5361,
      "▁yes": 5362,
      "(\"\\": 5363,
      "▁Pac": 5364,
      "Str": 5365,
      "uje": 5366,
      "▁Dat": 5367,
      "▁relief": 5368,
      "Price": 5369,
      "Est": 5370,
      "▁Far": 5371,
      ")).": 5372,
      "▁Jul": 5373,
      "(()": 5374,
      "▁eating": 5375,
      ">,": 5376,
      "вой": 5377,
      "▁('": 5378,
      "oca": 5379,
      "ups": 5380,
      "▁dimension": 5381,
      "от": 5382,
      "ipp": 5383,
      "atz": 5384,
      "▁prz": 5385,
      "▁чи": 5386,
      "▁Page": 5387,
      "tra": 5388,
      "bridge": 5389,
      "▁cub": 5390,
      "▁ny": 5391,
      "▁Account": 5392,
      "▁Hor": 5393,
      "▁€": 5394,
      "▁Centre": 5395,
      "asp": 5396,
      "▁Copy": 5397,
      "tu": 5398,
      "km": 5399,
      "%)": 5400,
      "bes": 5401,
      "rij": 5402,
      "ются": 5403,
      "стви": 5404,
      "▁Martin": 5405,
      "▁спо": 5406,
      "▁raz": 5407,
      "▁Pop": 5408,
      "▁basket": 5409,
      "stop": 5410,
      "owe": 5411,
      "▁Hospital": 5412,
      "лей": 5413,
      "▁freedom": 5414,
      "стра": 5415,
      "▁spr": 5416,
      "(!": 5417,
      "кла": 5418,
      "uen": 5419,
      "aws": 5420,
      "вать": 5421,
      "ré": 5422,
      "iko": 5423,
      "('#": 5424,
      "ком": 5425,
      "▁Sup": 5426,
      "▁Da": 5427,
      "▁Х": 5428,
      "▁Community": 5429,
      "▁ordered": 5430,
      "Tem": 5431,
      "▁Chapter": 5432,
      "akh": 5433,
      "sal": 5434,
      "iu": 5435,
      "town": 5436,
      "▁года": 5437,
      "inda": 5438,
      "▁mini": 5439,
      "▁ran": 5440,
      "nbsp": 5441,
      "▁Love": 5442,
      "▁Bon": 5443,
      "ahl": 5444,
      "​​": 5445,
      "Amer": 5446,
      "()->": 5447,
      "▁Asia": 5448,
      "▁fell": 5449,
      "▁Lib": 5450,
      "cious": 5451,
      "▁Spe": 5452,
      "rica": 5453,
      "Ag": 5454,
      "=-": 5455,
      "ход": 5456,
      "esta": 5457,
      "سب": 5458,
      "ром": 5459,
      "фор": 5460,
      "сло": 5461,
      "jen": 5462,
      "»,": 5463,
      "▁sul": 5464,
      "ность": 5465,
      "account": 5466,
      "▁mater": 5467,
      "avel": 5468,
      "▁Lee": 5469,
      "=$": 5470,
      "Two": 5471,
      "watch": 5472,
      "Pa": 5473,
      "anna": 5474,
      "▁Pak": 5475,
      "вя": 5476,
      "Photo": 5477,
      "▁боль": 5478,
      "lg": 5479,
      "Bit": 5480,
      "▁Last": 5481,
      "▁Medical": 5482,
      "mg": 5483,
      "zel": 5484,
      "dart": 5485,
      "▁Word": 5486,
      "<!--": 5487,
      "▁Women": 5488,
      "Arg": 5489,
      "▁Look": 5490,
      "стоя": 5491,
      "▁Media": 5492,
      "▁Italy": 5493,
      "nom": 5494,
      "▁spending": 5495,
      "дер": 5496,
      "▁Labor": 5497,
      "▁##": 5498,
      "cp": 5499,
      "yer": 5500,
      "▁Ol": 5501,
      "▁Click": 5502,
      "▁letters": 5503,
      "▁attached": 5504,
      "▁!==": 5505,
      "Gu": 5506,
      "Screen": 5507,
      "▁мы": 5508,
      "otos": 5509,
      "▁grande": 5510,
      "bell": 5511,
      "кер": 5512,
      "▁Nam": 5513,
      "itas": 5514,
      "▁испо": 5515,
      "activ": 5516,
      "▁authorities": 5517,
      "▁Das": 5518,
      "▁repair": 5519,
      "▁Charles": 5520,
      "▁Music": 5521,
      "▁Van": 5522,
      "\\{\\": 5523,
      "▁winning": 5524,
      "▁kill": 5525,
      "▁Party": 5526,
      "born": 5527,
      "ника": 5528,
      "usi": 5529,
      "▁Soft": 5530,
      "▁ty": 5531,
      "aders": 5532,
      "Core": 5533,
      "лай": 5534,
      "▁citizens": 5535,
      "▁Os": 5536,
      "▁Kn": 5537,
      "▁Valley": 5538,
      "▁Young": 5539,
      "▁Ga": 5540,
      "-,": 5541,
      "▁Johnson": 5542,
      "brid": 5543,
      "sis": 5544,
      "▁Beach": 5545,
      "}[": 5546,
      "Pay": 5547,
      "нда": 5548,
      "▁Medic": 5549,
      "▁west": 5550,
      "Just": 5551,
      "Student": 5552,
      "imi": 5553,
      "Pop": 5554,
      "^\\": 5555,
      "▁pok": 5556,
      "Met": 5557,
      "▁Times": 5558,
      "azz": 5559,
      "▁Master": 5560,
      "ło": 5561,
      "▁justice": 5562,
      "stone": 5563,
      "elect": 5564,
      "▁}}": 5565,
      "▁kg": 5566,
      "Good": 5567,
      "▁matters": 5568,
      "▁пу": 5569,
      ">=": 5570,
      "proof": 5571,
      "ientes": 5572,
      "▁About": 5573,
      "raine": 5574,
      "▁stands": 5575,
      "elli": 5576,
      "ству": 5577,
      "▁receiving": 5578,
      "▁Gre": 5579,
      "uti": 5580,
      "oven": 5581,
      "▁ip": 5582,
      "▁Video": 5583,
      "▁alleged": 5584,
      "KE": 5585,
      "▁Som": 5586,
      "тво": 5587,
      "▁фи": 5588,
      "sur": 5589,
      "Si": 5590,
      ")*": 5591,
      "aci": 5592,
      ")}$": 5593,
      "▁Another": 5594,
      "channel": 5595,
      "прав": 5596,
      "▁closely": 5597,
      "craft": 5598,
      "ден": 5599,
      "▁Cu": 5600,
      "mond": 5601,
      "▁Order": 5602,
      "▁Fest": 5603,
      "she": 5604,
      "May": 5605,
      "▁Manager": 5606,
      "▁Virgin": 5607,
      "▁Next": 5608,
      ")_{": 5609,
      "▁launched": 5610,
      "▁brings": 5611,
      "ление": 5612,
      "blog": 5613,
      "▁roz": 5614,
      "▁cz": 5615,
      "Android": 5616,
      "▁birthday": 5617,
      "▁Wall": 5618,
      "▁'@": 5619,
      "▁Security": 5620,
      "Light": 5621,
      "ruck": 5622,
      "Play": 5623,
      "▁ft": 5624,
      "род": 5625,
      ".]": 5626,
      "▁contra": 5627,
      "Rating": 5628,
      "▁Saf": 5629,
      "enti": 5630,
      "amo": 5631,
      "cloud": 5632,
      "▁Series": 5633,
      "eri": 5634,
      "▁Value": 5635,
      "íc": 5636,
      "▁crime": 5637,
      "▁conflict": 5638,
      "▁пла": 5639,
      "бли": 5640,
      "Ang": 5641,
      "▁Sel": 5642,
      "▁Sir": 5643,
      "▁proved": 5644,
      "▁gram": 5645,
      "ande": 5646,
      "▁kat": 5647,
      "▁Ok": 5648,
      "▁Royal": 5649,
      "▁Ein": 5650,
      "▁capture": 5651,
      "——": 5652,
      "▁Event": 5653,
      "nn": 5654,
      "▁++": 5655,
      "▁Mrs": 5656,
      "________________": 5657,
      "▁Field": 5658,
      "▁beat": 5659,
      "▁[];": 5660,
      ".’": 5661,
      "▁Corp": 5662,
      "tri": 5663,
      "\"\"\"": 5664,
      "sn": 5665,
      "▁кра": 5666,
      "▁quer": 5667,
      "zn": 5668,
      "irk": 5669,
      "uno": 5670,
      "▁Town": 5671,
      "▁speaking": 5672,
      "▁draft": 5673,
      "▁Local": 5674,
      "▁Middle": 5675,
      "▁Trust": 5676,
      "dx": 5677,
      "gel": 5678,
      "▁guests": 5679,
      ".__": 5680,
      ":\\": 5681,
      "▁авто": 5682,
      "lov": 5683,
      "▁Henry": 5684,
      "▁Blo": 5685,
      "▁edition": 5686,
      "▁Israel": 5687,
      "anal": 5688,
      "ned": 5689,
      "oses": 5690,
      "▁Aff": 5691,
      "?.": 5692,
      "lia": 5693,
      "▁Policy": 5694,
      "жет": 5695,
      "зино": 5696,
      "izza": 5697,
      "▁Term": 5698,
      "atto": 5699,
      "xx": 5700,
      "\\}$": 5701,
      "emma": 5702,
      "\":\"": 5703,
      "▁trading": 5704,
      ".~": 5705,
      "Fi": 5706,
      "▁yo": 5707,
      "(*": 5708,
      "world": 5709,
      "ibles": 5710,
      "aret": 5711,
      "ilipp": 5712,
      "Second": 5713,
      "▁Mu": 5714,
      "bus": 5715,
      "▁Police": 5716,
      "Pat": 5717,
      "▁Pot": 5718,
      "▁Ро": 5719,
      "aph": 5720,
      "ennis": 5721,
      "Store": 5722,
      "hem": 5723,
      "=[": 5724,
      "yor": 5725,
      "циа": 5726,
      "arga": 5727,
      "том": 5728,
      "express": 5729,
      "▁Cult": 5730,
      "▁rod": 5731,
      "▁Sem": 5732,
      "ár": 5733,
      "▁Engineering": 5734,
      "▁полу": 5735,
      "rah": 5736,
      "Bundle": 5737,
      "bn": 5738,
      "▁\"?": 5739,
      "usa": 5740,
      "▁fon": 5741,
      "▁Right": 5742,
      "▁Luc": 5743,
      "цы": 5744,
      "Med": 5745,
      "kov": 5746,
      "▁Jones": 5747,
      "bat": 5748,
      "що": 5749,
      "▁Division": 5750,
      "}^{*": 5751,
      "▁пе": 5752,
      "нию": 5753,
      "▁kam": 5754,
      "rif": 5755,
      "▁kr": 5756,
      "access": 5757,
      "▁posted": 5758,
      "unda": 5759,
      "▁Rom": 5760,
      "gov": 5761,
      "▁massive": 5762,
      "++++": 5763,
      "uling": 5764,
      "▁twenty": 5765,
      "▁Carl": 5766,
      ".....": 5767,
      "anish": 5768,
      "▁Update": 5769,
      "▁SO": 5770,
      "логи": 5771,
      "тор": 5772,
      "pres": 5773,
      "▁Я": 5774,
      "▁jak": 5775,
      "▁пи": 5776,
      "aze": 5777,
      "▁Lie": 5778,
      "▁Total": 5779,
      "дина": 5780,
      "\\}": 5781,
      "isto": 5782,
      "▁Ce": 5783,
      "kel": 5784,
      "cie": 5785,
      "▁examination": 5786,
      "▁це": 5787,
      "йте": 5788,
      "▁Dub": 5789,
      "super": 5790,
      "▁heating": 5791,
      "tor": 5792,
      "вля": 5793,
      "Di": 5794,
      "▁warrant": 5795,
      "▁kin": 5796,
      "▁pom": 5797,
      "amy": 5798,
      "▁Lu": 5799,
      "▁Rh": 5800,
      "▁Cross": 5801,
      "John": 5802,
      "▁Market": 5803,
      "▁Support": 5804,
      "▁intensity": 5805,
      "▁\");": 5806,
      "ными": 5807,
      "wing": 5808,
      "тери": 5809,
      "▁За": 5810,
      "bg": 5811,
      "▁bodies": 5812,
      "вод": 5813,
      "▁Take": 5814,
      "▁bio": 5815,
      "encias": 5816,
      "▁слу": 5817,
      "▁Search": 5818,
      ")}{": 5819,
      "mus": 5820,
      "▁ту": 5821,
      "alan": 5822,
      "▁Hotel": 5823,
      "▁lies": 5824,
      "itu": 5825,
      "▁%>": 5826,
      "▁Family": 5827,
      "Il": 5828,
      "teen": 5829,
      "Del": 5830,
      "▁dance": 5831,
      "------------": 5832,
      "_{(": 5833,
      "▁Plus": 5834,
      "Thanks": 5835,
      "▁Task": 5836,
      ".),": 5837,
      "}^{(": 5838,
      "made": 5839,
      "▁Wik": 5840,
      "▁Haw": 5841,
      "▁Mit": 5842,
      "▁Tay": 5843,
      "mac": 5844,
      "шо": 5845,
      "ometer": 5846,
      "▁Ram": 5847,
      "три": 5848,
      "Oh": 5849,
      "▁(@": 5850,
      "ogo": 5851,
      "▁\"@": 5852,
      "chat": 5853,
      "news": 5854,
      ";&": 5855,
      "ень": 5856,
      "ский": 5857,
      "▁extend": 5858,
      "▁storm": 5859,
      "▁medi": 5860,
      "▁Sea": 5861,
      "▁Ep": 5862,
      "Ev": 5863,
      "▁২০": 5864,
      "▁Systems": 5865,
      "present": 5866,
      "▁planned": 5867,
      "▁rural": 5868,
      "▁Fac": 5869,
      "▁Standard": 5870,
      "▁tall": 5871,
      "vision": 5872,
      "▁\"\";": 5873,
      "Die": 5874,
      "дет": 5875,
      "▁Four": 5876,
      "pad": 5877,
      "istant": 5878,
      "▁Aus": 5879,
      "пол": 5880,
      "▁flash": 5881,
      "'));": 5882,
      "▁Ell": 5883,
      "▁Conference": 5884,
      "▁Jun": 5885,
      "esh": 5886,
      "▁Fun": 5887,
      "icker": 5888,
      "▁Pack": 5889,
      "inds": 5890,
      "▁Rod": 5891,
      "▁”": 5892,
      "Well": 5893,
      "Sigma": 5894,
      "yg": 5895,
      "▁Dar": 5896,
      "erta": 5897,
      "seg": 5898,
      "▁Print": 5899,
      "▁Mill": 5900,
      "nc": 5901,
      "▁Daniel": 5902,
      "rick": 5903,
      "Every": 5904,
      "master": 5905,
      "ço": 5906,
      "▁Online": 5907,
      "ách": 5908,
      "▁Ко": 5909,
      "▁só": 5910,
      "▁би": 5911,
      "▁Kim": 5912,
      "▁vid": 5913,
      "▁proces": 5914,
      "▁Bol": 5915,
      "▁mens": 5916,
      "quis": 5917,
      "▁violence": 5918,
      "ская": 5919,
      "enza": 5920,
      "erry": 5921,
      "Make": 5922,
      "▁için": 5923,
      "▁ну": 5924,
      "▁shut": 5925,
      "global": 5926,
      "elo": 5927,
      "▁architecture": 5928,
      "▁vin": 5929,
      "лек": 5930,
      "▁naj": 5931,
      "(\"%": 5932,
      "▁trail": 5933,
      "Div": 5934,
      "High": 5935,
      "oren": 5936,
      "iera": 5937,
      "▁Polit": 5938,
      "▁Ox": 5939,
      "▁Angeles": 5940,
      "don": 5941,
      "▁prod": 5942,
      "}),": 5943,
      "▁Mexico": 5944,
      "▁Kr": 5945,
      "▁ker": 5946,
      "Day": 5947,
      "fi": 5948,
      "Sur": 5949,
      "Person": 5950,
      "Before": 5951,
      "▁Custom": 5952,
      "▁Index": 5953,
      "▁Jr": 5954,
      "кме": 5955,
      "▁kl": 5956,
      "▁после": 5957,
      "city": 5958,
      "zero": 5959,
      "▁Effect": 5960,
      "▁Army": 5961,
      "▁Chair": 5962,
      "▁abc": 5963,
      "тре": 5964,
      "!”": 5965,
      "▁Win": 5966,
      "▁Ly": 5967,
      ")^": 5968,
      "isen": 5969,
      "ativa": 5970,
      "ibus": 5971,
      "▁beer": 5972,
      "▁Australian": 5973,
      "ryst": 5974,
      "▁industries": 5975,
      "fold": 5976,
      "found": 5977,
      "лее": 5978,
      "IX": 5979,
      "нк": 5980,
      "'];": 5981,
      "▁nap": 5982,
      "▁${\\": 5983,
      "▁дол": 5984,
      "▁Have": 5985,
      "▁_{": 5986,
      "▁Tw": 5987,
      "arta": 5988,
      "пер": 5989,
      "▁Week": 5990,
      "aku": 5991,
      "▁reliable": 5992,
      "\"+": 5993,
      "▁protest": 5994,
      "law": 5995,
      "▁thousand": 5996,
      "pal": 5997,
      "▁Anda": 5998,
      "gage": 5999,
      "▁Tool": 6000,
      "ин": 6001,
      "rik": 6002,
      "Sec": 6003,
      "agem": 6004,
      "äng": 6005,
      "esis": 6006,
      "vor": 6007,
      "aded": 6008,
      "two": 6009,
      "▁Put": 6010,
      "Luc": 6011,
      "▁Space": 6012,
      "ulu": 6013,
      "▁east": 6014,
      "***": 6015,
      "▁\"?\"]": 6016,
      "▁Store": 6017,
      "obe": 6018,
      "}^{+": 6019,
      "<\\": 6020,
      "чу": 6021,
      "’,": 6022,
      "uran": 6023,
      "льзова": 6024,
      "▁Egypt": 6025,
      "▁dot": 6026,
      "oso": 6027,
      "▁'<": 6028,
      "nut": 6029,
      "amine": 6030,
      "▁Hard": 6031,
      "▁Ohio": 6032,
      "▁kw": 6033,
      "onia": 6034,
      "▁Ka": 6035,
      "▁kor": 6036,
      "▁ки": 6037,
      "спе": 6038,
      "▁Ham": 6039,
      "jan": 6040,
      "▁Santa": 6041,
      "uras": 6042,
      "rod": 6043,
      "▁terror": 6044,
      "▁Ros": 6045,
      "▁television": 6046,
      "orship": 6047,
      "iot": 6048,
      "▁Williams": 6049,
      "кры": 6050,
      "▁:,": 6051,
      "▁【": 6052,
      "wd": 6053,
      "▁\"#": 6054,
      "▁warning": 6055,
      "▁Bow": 6056,
      "mel": 6057,
      "▁від": 6058,
      "itate": 6059,
      "кмекер": 6060,
      "▁akt": 6061,
      "▁Before": 6062,
      "▁Joseph": 6063,
      "▁тре": 6064,
      "sto": 6065,
      "hora": 6066,
      "activity": 6067,
      "▁Wild": 6068,
      "▁bid": 6069,
      "twitter": 6070,
      "illo": 6071,
      "▁Rome": 6072,
      "bih": 6073,
      "▁fighting": 6074,
      "सर": 6075,
      "▁$[": 6076,
      "▁Ren": 6077,
      "▁Path": 6078,
      "▁Bad": 6079,
      "++){": 6080,
      "iac": 6081,
      "Take": 6082,
      "▁Common": 6083,
      "▁reporting": 6084,
      "?>": 6085,
      "лся": 6086,
      "▁Analysis": 6087,
      "cost": 6088,
      "chester": 6089,
      "mun": 6090,
      "▁Ess": 6091,
      "plus": 6092,
      "Sch": 6093,
      "▁Button": 6094,
      "▁faces": 6095,
      "▁spoke": 6096,
      "▁Modern": 6097,
      "зда": 6098,
      "▁Conf": 6099,
      "Vol": 6100,
      "сі": 6101,
      "edi": 6102,
      "imp": 6103,
      "▁Library": 6104,
      "▁Stock": 6105,
      "yy": 6106,
      "зе": 6107,
      "▁reward": 6108,
      "▁Award": 6109,
      "На": 6110,
      "\\\",": 6111,
      "lymp": 6112,
      "oter": 6113,
      "’.": 6114,
      "▁их": 6115,
      "orters": 6116,
      "▁Ps": 6117,
      "▁Access": 6118,
      "▁Academy": 6119,
      "rá": 6120,
      "▁gew": 6121,
      "▁Ta": 6122,
      "zone": 6123,
      "▁Kom": 6124,
      "▁strengthen": 6125,
      "▁millions": 6126,
      "Press": 6127,
      "ovo": 6128,
      "новни": 6129,
      "▁Bang": 6130,
      "Look": 6131,
      "nych": 6132,
      "▁фа": 6133,
      "nat": 6134,
      "▁iPhone": 6135,
      "▁happening": 6136,
      "▁Canadian": 6137,
      "▁фу": 6138,
      "дар": 6139,
      "▁minister": 6140,
      "]=": 6141,
      "aco": 6142,
      "▁Walk": 6143,
      "▁Prime": 6144,
      "▁Contact": 6145,
      "lers": 6146,
      "▁Cat": 6147,
      "▁ric": 6148,
      "▁translation": 6149,
      "▁winner": 6150,
      "uego": 6151,
      "arena": 6152,
      "Full": 6153,
      "isp": 6154,
      "▁Civil": 6155,
      "▁Forest": 6156,
      "▁Ur": 6157,
      "Save": 6158,
      "▁vom": 6159,
      "photo": 6160,
      "▁api": 6161,
      "▁Three": 6162,
      "▁Foot": 6163,
      "▁Farm": 6164,
      "VI": 6165,
      "▁Sus": 6166,
      "▁Bud": 6167,
      "▁Current": 6168,
      "▁Ма": 6169,
      "▁Kon": 6170,
      "▁Sn": 6171,
      "Ant": 6172,
      "▁Short": 6173,
      "▁apartment": 6174,
      "že": 6175,
      "▁Coast": 6176,
      "Big": 6177,
      "itage": 6178,
      "▁(*": 6179,
      "atta": 6180,
      "дин": 6181,
      "▁Little": 6182,
      "▁Cell": 6183,
      "▁Southern": 6184,
      "▁Ger": 6185,
      "onda": 6186,
      "ateur": 6187,
      "▁Turn": 6188,
      "▁euro": 6189,
      "▁Mir": 6190,
      "▁Ray": 6191,
      "▁Spain": 6192,
      "▁Saint": 6193,
      "Rest": 6194,
      "Ill": 6195,
      "Record": 6196,
      "фе": 6197,
      "▁Deb": 6198,
      "▁lí": 6199,
      "▁taxes": 6200,
      "▁*)": 6201,
      "▁Hay": 6202,
      "wall": 6203,
      "wick": 6204,
      "lag": 6205,
      "▁dropped": 6206,
      "مان": 6207,
      "▁Columb": 6208,
      "▁га": 6209,
      "Are": 6210,
      "pot": 6211,
      "alg": 6212,
      "▁Pacific": 6213,
      "nia": 6214,
      "▁Digital": 6215,
      "('./": 6216,
      "Files": 6217,
      "▁сло": 6218,
      "sta": 6219,
      "ento": 6220,
      "alu": 6221,
      "\"],": 6222,
      "▁стра": 6223,
      "emi": 6224,
      "▁Again": 6225,
      "▁Carolina": 6226,
      "▁Bit": 6227,
      "▁Ven": 6228,
      "тра": 6229,
      "ді": 6230,
      "margin": 6231,
      "▁Auto": 6232,
      "ць": 6233,
      "uba": 6234,
      "inas": 6235,
      "▁можно": 6236,
      "vr": 6237,
      "Sal": 6238,
      "▁bless": 6239,
      "▁Francisco": 6240,
      "esc": 6241,
      "▁°": 6242,
      "▁ти": 6243,
      "▁momento": 6244,
      "nej": 6245,
      "▁Justice": 6246,
      "Cu": 6247,
      "▁Pur": 6248,
      "days": 6249,
      "Media": 6250,
      "igue": 6251,
      "nis": 6252,
      "▁Chris": 6253,
      "▁Change": 6254,
      "▁uk": 6255,
      "▁Sin": 6256,
      "///": 6257,
      ")</": 6258,
      "▁ly": 6259,
      "вания": 6260,
      "wr": 6261,
      "▁Cro": 6262,
      "illy": 6263,
      "rv": 6264,
      "▁Mi": 6265,
      "чение": 6266,
      "Opt": 6267,
      "▁dual": 6268,
      "▁Studies": 6269,
      "▁Gra": 6270,
      "]))": 6271,
      "▁asset": 6272,
      "leri": 6273,
      "cred": 6274,
      "wt": 6275,
      "World": 6276,
      "Ben": 6277,
      "▁Connect": 6278,
      "anco": 6279,
      "asant": 6280,
      "клю": 6281,
      "▁Tri": 6282,
      "бра": 6283,
      "Proof": 6284,
      "▁Indonesia": 6285,
      "▁boxes": 6286,
      "▁Wi": 6287,
      "inch": 6288,
      "▁Ele": 6289,
      "пра": 6290,
      "▁Response": 6291,
      "▁Corporation": 6292,
      "ких": 6293,
      "`;": 6294,
      "fields": 6295,
      "▁ар": 6296,
      "▁Americans": 6297,
      "▁restrictions": 6298,
      "Engine": 6299,
      "▁Low": 6300,
      "нг": 6301,
      "▁Pers": 6302,
      "essa": 6303,
      "▁ду": 6304,
      "hn": 6305,
      "▁Ast": 6306,
      "▁Cy": 6307,
      "Fore": 6308,
      "than": 6309,
      "▁Hal": 6310,
      "ulum": 6311,
      "nee": 6312,
      "▁Jeff": 6313,
      "▁Price": 6314,
      "▁Senate": 6315,
      "▁worst": 6316,
      "iii": 6317,
      "▁Queen": 6318,
      "▁-=": 6319,
      "▁Brazil": 6320,
      "▁Ve": 6321,
      "▁concert": 6322,
      "▁Philipp": 6323,
      "ży": 6324,
      "▁Ball": 6325,
      "▁Station": 6326,
      "acia": 6327,
      "uka": 6328,
      "пы": 6329,
      "American": 6330,
      "zia": 6331,
      "alia": 6332,
      "?:": 6333,
      "жде": 6334,
      "▁'',": 6335,
      "ней": 6336,
      "ogue": 6337,
      "▁'../": 6338,
      "▁Sports": 6339,
      "▁โ": 6340,
      "▁’": 6341,
      "▁festival": 6342,
      "▁Dom": 6343,
      "▁Know": 6344,
      "год": 6345,
      "▁screens": 6346,
      "bury": 6347,
      "Gen": 6348,
      "annya": 6349,
      "▁bez": 6350,
      "▁дан": 6351,
      "▁Joe": 6352,
      "had": 6353,
      "Under": 6354,
      "lon": 6355,
      "ły": 6356,
      "ód": 6357,
      "kind": 6358,
      "ść": 6359,
      "▁uz": 6360,
      "%\\": 6361,
      "▁орга": 6362,
      "usal": 6363,
      "▁име": 6364,
      "Pi": 6365,
      "olis": 6366,
      "▁Lat": 6367,
      "Thank": 6368,
      "may": 6369,
      "mag": 6370,
      "<<\"": 6371,
      "▁Natural": 6372,
      "Es": 6373,
      "▁\";": 6374,
      "week": 6375,
      "▁Asian": 6376,
      "вые": 6377,
      "acon": 6378,
      "▁Ministry": 6379,
      "▁только": 6380,
      "▁Arts": 6381,
      "eman": 6382,
      "Sk": 6383,
      "▁Boston": 6384,
      "rin": 6385,
      "▁electricity": 6386,
      "erty": 6387,
      "▁১৯": 6388,
      "▁coin": 6389,
      "arts": 6390,
      "▁Tok": 6391,
      "▁Ukraine": 6392,
      "ahren": 6393,
      "aug": 6394,
      "ев": 6395,
      "▁sek": 6396,
      "▁że": 6397,
      "▁Mike": 6398,
      "^{(": 6399,
      "wei": 6400,
      "Ins": 6401,
      "▁vy": 6402,
      "azioni": 6403,
      "yam": 6404,
      "redit": 6405,
      "▁versus": 6406,
      "ivi": 6407,
      "▁Through": 6408,
      "▁само": 6409,
      "{\"": 6410,
      "▁Step": 6411,
      "▁Ash": 6412,
      "Once": 6413,
      "General": 6414,
      "▁фор": 6415,
      "fish": 6416,
      "away": 6417,
      "▁Kong": 6418,
      "Word": 6419,
      "Even": 6420,
      "(@": 6421,
      "team": 6422,
      "▁revolution": 6423,
      "]+": 6424,
      "▁−": 6425,
      "▁Nature": 6426,
      "dan": 6427,
      "anza": 6428,
      "▁Emp": 6429,
      "cam": 6430,
      "▁hub": 6431,
      "into": 6432,
      "odos": 6433,
      "▁Executive": 6434,
      "▁mp": 6435,
      "▁ticket": 6436,
      ")+\\": 6437,
      "▁\"^": 6438,
      "otor": 6439,
      "ifs": 6440,
      "▁arrive": 6441,
      "кого": 6442,
      "rank": 6443,
      "tw": 6444,
      "▁Covid": 6445,
      "'].": 6446,
      "sted": 6447,
      "▁Live": 6448,
      "▁Micro": 6449,
      "cod": 6450,
      "▁glob": 6451,
      "ían": 6452,
      "▁Dam": 6453,
      "▁Was": 6454,
      "▁personas": 6455,
      "▁гра": 6456,
      "▁Force": 6457,
      "▁bay": 6458,
      "iest": 6459,
      "ket": 6460,
      "raid": 6461,
      "▁Consult": 6462,
      "Range": 6463,
      "Les": 6464,
      "xis": 6465,
      ".}": 6466,
      "prom": 6467,
      "▁Self": 6468,
      "▁ис": 6469,
      "▁Ja": 6470,
      "▁}}$": 6471,
      "via": 6472,
      "▁Taylor": 6473,
      "{{": 6474,
      "worth": 6475,
      "bad": 6476,
      "▁Pas": 6477,
      "▁Did": 6478,
      "elen": 6479,
      "новниш": 6480,
      "：“": 6481,
      "arante": 6482,
      "▁Games": 6483,
      "▁без": 6484,
      "fly": 6485,
      "▁Supreme": 6486,
      "Score": 6487,
      "▁league": 6488,
      "▁Gru": 6489,
      "(--": 6490,
      "▁Children": 6491,
      "Op": 6492,
      "▁Hong": 6493,
      "▁Sav": 6494,
      "▁Kingdom": 6495,
      "▁Guide": 6496,
      "▁Machine": 6497,
      "▁Case": 6498,
      "дов": 6499,
      "▁feat": 6500,
      "▁tv": 6501,
      "▁Jackson": 6502,
      "▁Server": 6503,
      "▁clothing": 6504,
      "▁@@": 6505,
      "…………": 6506,
      "▁gonna": 6507,
      "Tra": 6508,
      "▁Ali": 6509,
      "Focus": 6510,
      "oly": 6511,
      "agne": 6512,
      "сно": 6513,
      "Free": 6514,
      "▁ó": 6515,
      "zing": 6516,
      "▁[[": 6517,
      "}}(": 6518,
      "чень": 6519,
      "▁'#": 6520,
      "▁Wis": 6521,
      "=\"\"": 6522,
      "вых": 6523,
      "▁Korea": 6524,
      "agi": 6525,
      "Cur": 6526,
      "▁Chen": 6527,
      "пла": 6528,
      "atura": 6529,
      "▁Never": 6530,
      "shire": 6531,
      "bank": 6532,
      "▁Software": 6533,
      "▁\"\",": 6534,
      "▁Boy": 6535,
      "▁Ten": 6536,
      "report": 6537,
      "▁Place": 6538,
      "dk": 6539,
      "▁worldwide": 6540,
      "sea": 6541,
      "▁Festival": 6542,
      "▁mapping": 6543,
      "%%%%%%%%": 6544,
      "▁Gro": 6545,
      "новништво": 6546,
      "-->": 6547,
      "kw": 6548,
      "▁Mess": 6549,
      "▁Бу": 6550,
      "ppy": 6551,
      "▁Esp": 6552,
      "oids": 6553,
      "▁Fair": 6554,
      "!)": 6555,
      "▁Ah": 6556,
      "▁Olymp": 6557,
      "\")]": 6558,
      ")|": 6559,
      "Must": 6560,
      "кий": 6561,
      "▁Seg": 6562,
      "▁(-": 6563,
      "exit": 6564,
      "▁bor": 6565,
      "Young": 6566,
      "anne": 6567,
      "▁Band": 6568,
      "Arr": 6569,
      "▁Andrew": 6570,
      "▁ś": 6571,
      "hard": 6572,
      "Will": 6573,
      "▁debate": 6574,
      "▁Britain": 6575,
      "amed": 6576,
      "▁Bull": 6577,
      "▁Unit": 6578,
      "inking": 6579,
      "prote": 6580,
      "yard": 6581,
      "▁Northern": 6582,
      "▁Ш": 6583,
      "▁Write": 6584,
      "ają": 6585,
      "anim": 6586,
      "áv": 6587,
      "▁Penn": 6588,
      "▁×": 6589,
      "construct": 6590,
      "▁بي": 6591,
      "▁crowd": 6592,
      "жда": 6593,
      "▁Berlin": 6594,
      "▁suspect": 6595,
      "лись": 6596,
      "▁Brook": 6597,
      "rient": 6598,
      "▁injuries": 6599,
      "▁Maybe": 6600,
      "▁Harr": 6601,
      "aye": 6602,
      "Et": 6603,
      "▁Quest": 6604,
      "▁Ped": 6605,
      "zu": 6606,
      "▁Ban": 6607,
      "archive": 6608,
      "onder": 6609,
      "▁streets": 6610,
      "omo": 6611,
      "▁Smart": 6612,
      "aser": 6613,
      "▁При": 6614,
      "▁Plant": 6615,
      "▁\"${": 6616,
      "▁Student": 6617,
      "Cr": 6618,
      "Report": 6619,
      "▁Jersey": 6620,
      "▁Sho": 6621,
      "▁сле": 6622,
      "▁Michigan": 6623,
      "лов": 6624,
      "▁Vo": 6625,
      "Sa": 6626,
      "unge": 6627,
      "▁Kit": 6628,
      "▁Aqu": 6629,
      "ър": 6630,
      "▁luxury": 6631,
      "collection": 6632,
      "▁есть": 6633,
      "iah": 6634,
      "▁\")": 6635,
      "▁Imp": 6636,
      "▁ram": 6637,
      "▁жа": 6638,
      "ikt": 6639,
      "▁Sher": 6640,
      "▁communications": 6641,
      "▁৩": 6642,
      "▁SA": 6643,
      "▁также": 6644,
      "ним": 6645,
      "▁гру": 6646,
      "tery": 6647,
      "▁Quant": 6648,
      "жение": 6649,
      "št": 6650,
      "▁Sat": 6651,
      "thor": 6652,
      "wind": 6653,
      "heit": 6654,
      "▁believes": 6655,
      ".(": 6656,
      "▁southern": 6657,
      "ivel": 6658,
      "▁Night": 6659,
      "▁Grow": 6660,
      "▁Bat": 6661,
      "▁Oil": 6662,
      "ea": 6663,
      ".\");": 6664,
      "abi": 6665,
      "▁lady": 6666,
      "Conf": 6667,
      "Fin": 6668,
      "▁Dur": 6669,
      "Who": 6670,
      "uar": 6671,
      "▁Bob": 6672,
      "}]": 6673,
      "▁sar": 6674,
      "iale": 6675,
      "Beautiful": 6676,
      "Lin": 6677,
      "▁Stan": 6678,
      "▁Song": 6679,
      "dl": 6680,
      "▁Мо": 6681,
      "▁Sport": 6682,
      "▁Han": 6683,
      "ulin": 6684,
      "▁kol": 6685,
      "His": 6686,
      "rock": 6687,
      "▁Cru": 6688,
      "▁Assembly": 6689,
      "▁Neg": 6690,
      "sky": 6691,
      "вого": 6692,
      "▁nad": 6693,
      "rup": 6694,
      "води": 6695,
      "alert": 6696,
      "▁dok": 6697,
      "тя": 6698,
      "мет": 6699,
      "bie": 6700,
      "▁Но": 6701,
      "▁XX": 6702,
      "ennes": 6703,
      "▁Tal": 6704,
      "BM": 6705,
      "емы": 6706,
      "ilet": 6707,
      "(__": 6708,
      "▁premier": 6709,
      "▁Building": 6710,
      "▁año": 6711,
      "▁Со": 6712,
      "▁Member": 6713,
      "Sn": 6714,
      "rag": 6715,
      "ighth": 6716,
      "▁Ford": 6717,
      "▁Au": 6718,
      "жу": 6719,
      "▁Block": 6720,
      "▁кар": 6721,
      "anas": 6722,
      "▁vos": 6723,
      "▁→": 6724,
      "▁hurt": 6725,
      "▁которые": 6726,
      "pton": 6727,
      "utos": 6728,
      "iej": 6729,
      "▁\".": 6730,
      "marks": 6731,
      "▁Euro": 6732,
      "вый": 6733,
      "зыва": 6734,
      "Pal": 6735,
      "mad": 6736,
      "гі": 6737,
      "▁Fall": 6738,
      "nan": 6739,
      "ovi": 6740,
      "▁``": 6741,
      "▁Final": 6742,
      "▁Parliament": 6743,
      "▁Double": 6744,
      "▁declared": 6745,
      "arten": 6746,
      "cv": 6747,
      "▁Sciences": 6748,
      "▁Nigeria": 6749,
      "▁Cloud": 6750,
      "▁hybrid": 6751,
      "▁Tele": 6752,
      "соб": 6753,
      "kk": 6754,
      ")-\\": 6755,
      "▁Sales": 6756,
      "▁contemporary": 6757,
      "wy": 6758,
      "▁poz": 6759,
      "▁}^{\\": 6760,
      "=\"\">": 6761,
      "Match": 6762,
      "Py": 6763,
      "▁moon": 6764,
      "+\"": 6765,
      "сла": 6766,
      "orie": 6767,
      "umen": 6768,
      "дь": 6769,
      "ials": 6770,
      "sun": 6771,
      "flash": 6772,
      ")^{\\": 6773,
      ")\"": 6774,
      "isu": 6775,
      "▁ray": 6776,
      "Cap": 6777,
      "ej": 6778,
      "▁Girl": 6779,
      "▁!!": 6780,
      "odge": 6781,
      "▁Ko": 6782,
      "osi": 6783,
      "▁может": 6784,
      "сті": 6785,
      "▁Cert": 6786,
      "issance": 6787,
      "market": 6788,
      "▁Moh": 6789,
      "▁recall": 6790,
      "\\|\\": 6791,
      "▁время": 6792,
      "aft": 6793,
      "▁McC": 6794,
      "▁przy": 6795,
      "▁tiny": 6796,
      "▁Bell": 6797,
      "▁Да": 6798,
      "▁Bra": 6799,
      "wal": 6800,
      "Support": 6801,
      "▁Rose": 6802,
      "▁Latin": 6803,
      "▁Inf": 6804,
      "Center": 6805,
      "▁'.": 6806,
      "▁nic": 6807,
      "раз": 6808,
      "▁ха": 6809,
      ":'": 6810,
      "Year": 6811,
      "▁Tax": 6812,
      "icher": 6813,
      "esi": 6814,
      "▁Sab": 6815,
      "{}": 6816,
      "▁Electric": 6817,
      "▁обла": 6818,
      "▁Mic": 6819,
      "лось": 6820,
      "▁elected": 6821,
      "▁Kal": 6822,
      "▁Watch": 6823,
      "▁Transport": 6824,
      "reb": 6825,
      "los": 6826,
      "▁помо": 6827,
      "irs": 6828,
      "▁Ult": 6829,
      "Blue": 6830,
      "▁чтобы": 6831,
      "▁Golden": 6832,
      "▁Portug": 6833,
      "▁Ju": 6834,
      "▁Irish": 6835,
      "▁Abs": 6836,
      "ashed": 6837,
      "xa": 6838,
      "▁объ": 6839,
      "▁Fa": 6840,
      "▁Radio": 6841,
      "itet": 6842,
      "▁Bru": 6843,
      "▁Hop": 6844,
      "▁Level": 6845,
      "ilty": 6846,
      "▁dy": 6847,
      "jon": 6848,
      "▁Pakistan": 6849,
      "▁Bor": 6850,
      "▁Ay": 6851,
      "▁Ра": 6852,
      "▁'\\": 6853,
      "oko": 6854,
      "▁Beautiful": 6855,
      "лове": 6856,
      "uren": 6857,
      "▁Bus": 6858,
      "ieu": 6859,
      "▁будет": 6860,
      "▁lub": 6861,
      ")):": 6862,
      "▁Small": 6863,
      "Welcome": 6864,
      "fc": 6865,
      "bled": 6866,
      "▁Safety": 6867,
      "ril": 6868,
      "▁survival": 6869,
      "▁conservation": 6870,
      "▁tickets": 6871,
      "Profile": 6872,
      "теля": 6873,
      "▁Editor": 6874,
      "nm": 6875,
      ")));": 6876,
      "▁Iran": 6877,
      "kon": 6878,
      "▁Very": 6879,
      "ogs": 6880,
      "<-": 6881,
      ":-": 6882,
      "Cent": 6883,
      "Speed": 6884,
      "▁Ki": 6885,
      "▁Content": 6886,
      "rov": 6887,
      "нова": 6888,
      "▁Guard": 6889,
      "ented": 6890,
      "▁Products": 6891,
      "ää": 6892,
      "Super": 6893,
      ">{": 6894,
      "cus": 6895,
      "▁если": 6896,
      "▁robot": 6897,
      "▁Wilson": 6898,
      "▁%>%": 6899,
      "}}=": 6900,
      "▁$_": 6901,
      "▁arrested": 6902,
      "▁Study": 6903,
      "▁prima": 6904,
      "▁Phot": 6905,
      "▁Broad": 6906,
      "▁Computer": 6907,
      "▁вер": 6908,
      "▁Medicine": 6909,
      "лар": 6910,
      "▁Version": 6911,
      "▁Bah": 6912,
      "▁vaccine": 6913,
      "▁що": 6914,
      "||": 6915,
      "▁Lag": 6916,
      "ipedia": 6917,
      "isan": 6918,
      "▁zo": 6919,
      "──": 6920,
      "▁Paper": 6921,
      "ossa": 6922,
      "▁Univ": 6923,
      "▁nay": 6924,
      "▁Economic": 6925,
      "Job": 6926,
      "▁mart": 6927,
      "Counter": 6928,
      "Her": 6929,
      "]).": 6930,
      "Only": 6931,
      "▁Financial": 6932,
      "*(": 6933,
      "fx": 6934,
      "▁reveal": 6935,
      "▁',": 6936,
      "▁Nuclear": 6937,
      "rice": 6938,
      "тия": 6939,
      "▁tomorrow": 6940,
      "▁{'": 6941,
      "▁Capital": 6942,
      "▁steady": 6943,
      "▁featured": 6944,
      "▁Ва": 6945,
      "▁smoke": 6946,
      "=\"$": 6947,
      "кс": 6948,
      "▁Administration": 6949,
      "▁Ky": 6950,
      "▁Load": 6951,
      "▁fot": 6952,
      "etti": 6953,
      "▁Story": 6954,
      "▁Про": 6955,
      "▁Sant": 6956,
      "▁bomb": 6957,
      "жения": 6958,
      "чения": 6959,
      "tk": 6960,
      "▁Gas": 6961,
      "oka": 6962,
      "}</": 6963,
      ".\")": 6964,
      "ghan": 6965,
      "▁Maria": 6966,
      "▁Close": 6967,
      "рии": 6968,
      "slash": 6969,
      "▁р": 6970,
      "ман": 6971,
      "bc": 6972,
      "▁Buff": 6973,
      "alis": 6974,
      "▁Nations": 6975,
      "Best": 6976,
      "шу": 6977,
      "oline": 6978,
      "▁regime": 6979,
      ":(": 6980,
      "Bet": 6981,
      "Cond": 6982,
      "▁Hu": 6983,
      "▁Player": 6984,
      "▁Oxford": 6985,
      "▁Film": 6986,
      "}\")": 6987,
      "Today": 6988,
      "▁Rog": 6989,
      "▁Integr": 6990,
      "▁bg": 6991,
      "enne": 6992,
      "▁{};": 6993,
      "▁Georgia": 6994,
      "іль": 6995,
      "▁было": 6996,
      "▁Jean": 6997,
      "?)": 6998,
      "-%": 6999,
      "▁weapons": 7000,
      "Weight": 7001,
      "ktion": 7002,
      "▁Sym": 7003,
      "▁Future": 7004,
      "#'": 7005,
      "irtual": 7006,
      "bm": 7007,
      "▁injured": 7008,
      "▁Buy": 7009,
      "▁invited": 7010,
      "aban": 7011,
      "▁Travel": 7012,
      "works": 7013,
      "▁Elizabeth": 7014,
      "anny": 7015,
      "▁Kam": 7016,
      "nek": 7017,
      "▁Tu": 7018,
      "Tim": 7019,
      "ًا": 7020,
      "▁Agency": 7021,
      "lj": 7022,
      "Green": 7023,
      "owie": 7024,
      "▁Ti": 7025,
      "▁тех": 7026,
      "izations": 7027,
      "нен": 7028,
      "писа": 7029,
      "▁Eth": 7030,
      "▁Thailand": 7031,
      "▁Front": 7032,
      "▁Has": 7033,
      "▁Training": 7034,
      "oust": 7035,
      "▁?>": 7036,
      "▁Miller": 7037,
      "jas": 7038,
      "▁Priv": 7039,
      "_.": 7040,
      "▁wo": 7041,
      "▁фо": 7042,
      "áz": 7043,
      "complete": 7044,
      "вая": 7045,
      ">=</": 7046,
      "▁Title": 7047,
      "рен": 7048,
      "Dist": 7049,
      "lyn": 7050,
      "▁bere": 7051,
      "nos": 7052,
      "▁Pri": 7053,
      "atti": 7054,
      "Stop": 7055,
      "kor": 7056,
      "▁Core": 7057,
      "▁Op": 7058,
      "Der": 7059,
      "ización": 7060,
      "▁Marg": 7061,
      "obi": 7062,
      "▁Sud": 7063,
      "}}=\\": 7064,
      "Water": 7065,
      "▁казино": 7066,
      "пера": 7067,
      "Design": 7068,
      "▁sí": 7069,
      "eness": 7070,
      "▁Cart": 7071,
      "rus": 7072,
      "tar": 7073,
      "рой": 7074,
      "▁Pod": 7075,
      "гла": 7076,
      "bil": 7077,
      ")){": 7078,
      "bras": 7079,
      "рия": 7080,
      "▁residential": 7081,
      "Bal": 7082,
      "rh": 7083,
      "▁Avenue": 7084,
      "▁Article": 7085,
      "▁Collection": 7086,
      "tech": 7087,
      "▁（": 7088,
      "льного": 7089,
      "udes": 7090,
      "eu": 7091,
      "▁Sky": 7092,
      "▁packages": 7093,
      ";\">": 7094,
      "apper": 7095,
      "▁Auf": 7096,
      "сс": 7097,
      "▁кла": 7098,
      "▁Airport": 7099,
      "▁cooperation": 7100,
      "▁stuck": 7101,
      "кти": 7102,
      "aden": 7103,
      "▁Font": 7104,
      "($_": 7105,
      "▁эле": 7106,
      "gang": 7107,
      "Win": 7108,
      "сов": 7109,
      "▁Zealand": 7110,
      "рта": 7111,
      "Because": 7112,
      "▁Feder": 7113,
      "[(": 7114,
      "▁Mountain": 7115,
      "Face": 7116,
      "yon": 7117,
      "кие": 7118,
      "▁Championship": 7119,
      "▁Keep": 7120,
      "Pad": 7121,
      "auer": 7122,
      "vid": 7123,
      "▁Fox": 7124,
      "*)": 7125,
      "jer": 7126,
      "▁Rot": 7127,
      "Li": 7128,
      "▁Ni": 7129,
      "▁Rights": 7130,
      "wear": 7131,
      "▁произ": 7132,
      "apple": 7133,
      "Space": 7134,
      "Intern": 7135,
      "▁Trade": 7136,
      "://$": 7137,
      "Final": 7138,
      "▁beta": 7139,
      "▁Mol": 7140,
      "▁Fab": 7141,
      "ене": 7142,
      "▁Source": 7143,
      "▁Country": 7144,
      "▁Register": 7145,
      "City": 7146,
      "mol": 7147,
      "▁Drive": 7148,
      "▁Command": 7149,
      "gate": 7150,
      "▁уже": 7151,
      "▁Ges": 7152,
      "Like": 7153,
      "▁Express": 7154,
      "дела": 7155,
      ".*;": 7156,
      "orous": 7157,
      "▁universe": 7158,
      "nah": 7159,
      "▁captured": 7160,
      "▁৫": 7161,
      "onde": 7162,
      "]-": 7163,
      "▁©": 7164,
      "▁й": 7165,
      "▁Given": 7166,
      "sex": 7167,
      "stan": 7168,
      "▁спе": 7169,
      "▁Harry": 7170,
      "лась": 7171,
      "▁Eastern": 7172,
      "ého": 7173,
      "/\\": 7174,
      "▁Od": 7175,
      "▁[],": 7176,
      "arte": 7177,
      "▁kle": 7178,
      "anan": 7179,
      "▁seats": 7180,
      "[-": 7181,
      "▁Бо": 7182,
      "▁Pow": 7183,
      "Ca": 7184,
      "▁aur": 7185,
      "Board": 7186,
      "Business": 7187,
      "▁Jam": 7188,
      "▁То": 7189,
      "▁Python": 7190,
      "▁Leon": 7191,
      "▁Sep": 7192,
      "▁Ц": 7193,
      "▁Age": 7194,
      "cord": 7195,
      "zk": 7196,
      "кон": 7197,
      "ondo": 7198,
      "льный": 7199,
      "▁Ale": 7200,
      "▁Singh": 7201,
      "▁был": 7202,
      "heim": 7203,
      "rett": 7204,
      "тро": 7205,
      ",,": 7206,
      "▁Bridge": 7207,
      "форма": 7208,
      "▁Kap": 7209,
      "лайн": 7210,
      "▁Nd": 7211,
      "]\\": 7212,
      "acles": 7213,
      "▁`${": 7214,
      "tf": 7215,
      "{-": 7216,
      "atos": 7217,
      "▁Graph": 7218,
      "^{+": 7219,
      "your": 7220,
      "▁Element": 7221,
      "Air": 7222,
      "และ": 7223,
      "inton": 7224,
      "▁dial": 7225,
      "▁году": 7226,
      "▁Among": 7227,
      "юще": 7228,
      "▁territory": 7229,
      "omi": 7230,
      "Drop": 7231,
      "avi": 7232,
      "▁Tree": 7233,
      "▁Са": 7234,
      "преде": 7235,
      "fre": 7236,
      "▁Pi": 7237,
      "burn": 7238,
      "кан": 7239,
      "▁Bed": 7240,
      "anth": 7241,
      "▁৪": 7242,
      "Prop": 7243,
      "▁Fle": 7244,
      "▁нача": 7245,
      "(:": 7246,
      "Global": 7247,
      "={{": 7248,
      "▁Clark": 7249,
      "▁Во": 7250,
      "▁meta": 7251,
      "]),": 7252,
      "Je": 7253,
      "emen": 7254,
      "gmail": 7255,
      "ilor": 7256,
      "lit": 7257,
      "▁Room": 7258,
      "flat": 7259,
      "▁champion": 7260,
      "Jan": 7261,
      "▁Job": 7262,
      "={<": 7263,
      "()).": 7264,
      "bird": 7265,
      "▁دي": 7266,
      "conn": 7267,
      "▁Europ": 7268,
      "Pres": 7269,
      "Doc": 7270,
      "~~": 7271,
      "мента": 7272,
      "▁ад": 7273,
      "▁nuevo": 7274,
      "вори": 7275,
      "▁soldiers": 7276,
      "▁Theory": 7277,
      "prof": 7278,
      "▁chances": 7279,
      "▁очень": 7280,
      "dw": 7281,
      "▁Не": 7282,
      "ák": 7283,
      "ayo": 7284,
      "дом": 7285,
      "▁flood": 7286,
      "▁Cambridge": 7287,
      "allas": 7288,
      "▁Aud": 7289,
      "▁Resources": 7290,
      "▁Adam": 7291,
      "ја": 7292,
      "']['": 7293,
      "▁Daily": 7294,
      "▁Sever": 7295,
      "▁Davis": 7296,
      "ibe": 7297,
      "мени": 7298,
      "▁Spirit": 7299,
      "Stud": 7300,
      "вание": 7301,
      "▁Hart": 7302,
      "▁Property": 7303,
      "▁Audio": 7304,
      "mont": 7305,
      "▁}\\": 7306,
      "neys": 7307,
      "веде": 7308,
      "▁Scotland": 7309,
      "osto": 7310,
      "▁Jordan": 7311,
      "▁Cou": 7312,
      "history": 7313,
      "Power": 7314,
      "▁Росси": 7315,
      "Sun": 7316,
      "▁Mand": 7317,
      "▁Tai": 7318,
      "▁Wind": 7319,
      "ставля": 7320,
      "▁Va": 7321,
      "trim": 7322,
      "▁Square": 7323,
      "angel": 7324,
      "sters": 7325,
      "▁Motor": 7326,
      "▁Brand": 7327,
      "▁Rule": 7328,
      "▁Grande": 7329,
      "▁Bot": 7330,
      "▁Status": 7331,
      "ilen": 7332,
      "▁Anth": 7333,
      "People": 7334,
      "/\"": 7335,
      "}}^{\\": 7336,
      "Team": 7337,
      "|^{": 7338,
      "▁Argent": 7339,
      "fact": 7340,
      "itel": 7341,
      "рук": 7342,
      "▁awards": 7343,
      "▁Message": 7344,
      "anche": 7345,
      "▁Wars": 7346,
      "сты": 7347,
      "/.": 7348,
      "itat": 7349,
      "▁Ocean": 7350,
      "▁Mobile": 7351,
      "▁Hi": 7352,
      "▁spo": 7353,
      "▁Pier": 7354,
      "▁Bureau": 7355,
      "▁Nu": 7356,
      "▁illegal": 7357,
      "▁явля": 7358,
      "вно": 7359,
      "▁Hum": 7360,
      "▁Lady": 7361,
      "▁Jen": 7362,
      "aska": 7363,
      "▁zw": 7364,
      "▁raising": 7365,
      "aty": 7366,
      "gas": 7367,
      "рак": 7368,
      "▁Marketing": 7369,
      "lav": 7370,
      "▁Khan": 7371,
      "lett": 7372,
      "▁гла": 7373,
      "}).": 7374,
      "▁челове": 7375,
      "▁мі": 7376,
      "▁Matt": 7377,
      "contents": 7378,
      "Mo": 7379,
      "▁Hope": 7380,
      "▁Winter": 7381,
      "mir": 7382,
      "▁variant": 7383,
      "▁pob": 7384,
      "▁Ms": 7385,
      "events": 7386,
      "бя": 7387,
      "unn": 7388,
      "▁Kan": 7389,
      "▁Shop": 7390,
      "▁Environmental": 7391,
      "kr": 7392,
      "▁VI": 7393,
      "▁Studio": 7394,
      "lah": 7395,
      "[$": 7396,
      "?[": 7397,
      "▁роз": 7398,
      "uter": 7399,
      "▁быть": 7400,
      "▁Nap": 7401,
      "News": 7402,
      "бле": 7403,
      "rell": 7404,
      "рез": 7405,
      "дей": 7406,
      "matic": 7407,
      "oku": 7408,
      "ovan": 7409,
      "▁victims": 7410,
      "▁Silver": 7411,
      "▁$$": 7412,
      "▁други": 7413,
      "▁Tech": 7414,
      "▁NAS": 7415,
      "▁необ": 7416,
      "▁Steve": 7417,
      "▁Columbia": 7418,
      "▁ша": 7419,
      "▁Defense": 7420,
      "available": 7421,
      "▁Vers": 7422,
      "▁Ru": 7423,
      "▁Dark": 7424,
      "cb": 7425,
      "rir": 7426,
      "▁Basic": 7427,
      "▁'-": 7428,
      "▁Tar": 7429,
      "▁Kur": 7430,
      "▁Alexander": 7431,
      "opter": 7432,
      "▁Tel": 7433,
      "▁Battle": 7434,
      "▁оста": 7435,
      "▁Vice": 7436,
      "▁Moscow": 7437,
      "&&": 7438,
      "Ma": 7439,
      "xl": 7440,
      "▁они": 7441,
      "▁wins": 7442,
      "▁wi": 7443,
      "▁сер": 7444,
      "▁Major": 7445,
      "ünd": 7446,
      "imedia": 7447,
      "▁Due": 7448,
      "Microsoft": 7449,
      "shall": 7450,
      "цион": 7451,
      "▁Param": 7452,
      "ван": 7453,
      "▁Lewis": 7454,
      "@[": 7455,
      "icia": 7456,
      "▁Nick": 7457,
      "hyth": 7458,
      "▁Jane": 7459,
      "ydney": 7460,
      "`)": 7461,
      "▁rag": 7462,
      "▁Cher": 7463,
      "Channel": 7464,
      "yi": 7465,
      "wend": 7466,
      "rique": 7467,
      "▁эти": 7468,
      "ikh": 7469,
      "чки": 7470,
      "liers": 7471,
      "тора": 7472,
      "ью": 7473,
      "▁Та": 7474,
      "▁Nord": 7475,
      "▁??": 7476,
      "….": 7477,
      "▁Zeit": 7478,
      "▁Save": 7479,
      "▁Original": 7480,
      "▁?,": 7481,
      "},\\": 7482,
      "зя": 7483,
      "▁Ар": 7484,
      "▁Prince": 7485,
      "Los": 7486,
      "▁Summer": 7487,
      "▁Kf": 7488,
      "{(": 7489,
      "слу": 7490,
      "▁зада": 7491,
      "zeit": 7492,
      "▁Kir": 7493,
      "▁Chairman": 7494,
      "anka": 7495,
      "})\\": 7496,
      "▁Should": 7497,
      "▁Ave": 7498,
      "iji": 7499,
      "\"])": 7500,
      "▁Vin": 7501,
      "▁Cit": 7502,
      "тому": 7503,
      "льной": 7504,
      "icz": 7505,
      "▁\"<": 7506,
      "___": 7507,
      "вить": 7508,
      "▁ў": 7509,
      "▁vil": 7510,
      "▁Singapore": 7511,
      "rev": 7512,
      "Events": 7513,
      "▁Child": 7514,
      "<>();": 7515,
      "▁Move": 7516,
      "▁Disney": 7517,
      "шен": 7518,
      "▁persona": 7519,
      "▁Personal": 7520,
      "тно": 7521,
      "▁Barb": 7522,
      "Public": 7523,
      "Security": 7524,
      "▁свя": 7525,
      "▁Manchester": 7526,
      "isme": 7527,
      "oval": 7528,
      "▁Gene": 7529,
      "▁Share": 7530,
      ":][": 7531,
      "otte": 7532,
      "▁Limited": 7533,
      "\\_": 7534,
      "▁Ron": 7535,
      "▁более": 7536,
      "▁Victoria": 7537,
      "▁bases": 7538,
      "obil": 7539,
      "▁Ре": 7540,
      "<!": 7541,
      "▁lucky": 7542,
      "clean": 7543,
      "▁Flow": 7544,
      "ją": 7545,
      "agle": 7546,
      "▁Hil": 7547,
      "▁cher": 7548,
      "▁Kenn": 7549,
      "▁:-": 7550,
      "bek": 7551,
      "▁Burn": 7552,
      "▁Dim": 7553,
      "▁Creek": 7554,
      "Resources": 7555,
      "gly": 7556,
      "▁Side": 7557,
      "▁Jewish": 7558,
      "▁corporation": 7559,
      "▁Display": 7560,
      "▁Still": 7561,
      "Watch": 7562,
      "▁пол": 7563,
      "Mac": 7564,
      "Por": 7565,
      "camp": 7566,
      "▁этом": 7567,
      "arin": 7568,
      "бря": 7569,
      "▁Ross": 7570,
      "boy": 7571,
      "▁уча": 7572,
      "apon": 7573,
      "stru": 7574,
      "цию": 7575,
      "ulp": 7576,
      "weather": 7577,
      "odi": 7578,
      "bid": 7579,
      "\"];": 7580,
      "▁того": 7581,
      "▁brothers": 7582,
      "nit": 7583,
      "▁$\\$": 7584,
      "esa": 7585,
      "▁использова": 7586,
      "oba": 7587,
      "▁Default": 7588,
      "iker": 7589,
      "▁Industrial": 7590,
      "Fire": 7591,
      "deo": 7592,
      "factor": 7593,
      "MW": 7594,
      "০০": 7595,
      "▁Annual": 7596,
      "▁созда": 7597,
      "▁много": 7598,
      "грам": 7599,
      "▁txt": 7600,
      "▁Authority": 7601,
      "pic": 7602,
      "▁~(": 7603,
      "▁:)": 7604,
      "▁Without": 7605,
      "_{-": 7606,
      "عة": 7607,
      "ступ": 7608,
      "}}}": 7609,
      "ının": 7610,
      "nas": 7611,
      "asty": 7612,
      "vc": 7613,
      "uset": 7614,
      "▁работа": 7615,
      "▁Nag": 7616,
      "{@": 7617,
      "▁Galaxy": 7618,
      "▁Rey": 7619,
      "▁Autom": 7620,
      "▁Deut": 7621,
      "▁Help": 7622,
      "▁Cir": 7623,
      "▁Это": 7624,
      "Google": 7625,
      "▁Á": 7626,
      "▁,,": 7627,
      "sha": 7628,
      "▁fusion": 7629,
      "жду": 7630,
      "kol": 7631,
      "▁Record": 7632,
      "▁Bag": 7633,
      "▁Укра": 7634,
      "acji": 7635,
      "Er": 7636,
      "=\"./": 7637,
      "rying": 7638,
      "Hub": 7639,
      "?,": 7640,
      "▁crash": 7641,
      "”，": 7642,
      "opath": 7643,
      "льных": 7644,
      "），": 7645,
      "dp": 7646,
      "тели": 7647,
      "kow": 7648,
      "isha": 7649,
      "▁mucho": 7650,
      "▁Madrid": 7651,
      "За": 7652,
      "▁Tab": 7653,
      "▁anniversary": 7654,
      "▁Exchange": 7655,
      "▁Tag": 7656,
      "▁Moon": 7657,
      "▁Heart": 7658,
      "▁mb": 7659,
      "▁Philadelphia": 7660,
      "▁Finance": 7661,
      "▁чем": 7662,
      "Sequ": 7663,
      "рь": 7664,
      "▁NA": 7665,
      "ipes": 7666,
      "ei": 7667,
      "Rob": 7668,
      "▁Tak": 7669,
      "yc": 7670,
      "можно": 7671,
      "ских": 7672,
      "ших": 7673,
      "ого": 7674,
      "▁Welcome": 7675,
      "Bi": 7676,
      "▁Need": 7677,
      "uga": 7678,
      "▁gig": 7679,
      "spot": 7680,
      "Mc": 7681,
      "cker": 7682,
      "************": 7683,
      "/:": 7684,
      "▁ла": 7685,
      "вали": 7686,
      "\\%": 7687,
      "▁Six": 7688,
      "Three": 7689,
      "▁Edition": 7690,
      "Leg": 7691,
      "▁Hung": 7692,
      "▁Private": 7693,
      "▁developer": 7694,
      "▁Performance": 7695,
      "ках": 7696,
      "izers": 7697,
      "jem": 7698,
      "odd": 7699,
      "▁Nob": 7700,
      "▁Donald": 7701,
      "assen": 7702,
      "kap": 7703,
      "▁Hub": 7704,
      "▁Wales": 7705,
      "▁қ": 7706,
      "mate": 7707,
      "▁Soviet": 7708,
      "language": 7709,
      "▁stainless": 7710,
      "▁Corn": 7711,
      "▁Anderson": 7712,
      "▁Ever": 7713,
      "▁Gil": 7714,
      "▁Colors": 7715,
      "▁Garden": 7716,
      "мати": 7717,
      "▁Bir": 7718,
      "зі": 7719,
      "▁Colorado": 7720,
      "rob": 7721,
      "▁тем": 7722,
      "▁нас": 7723,
      "=${": 7724,
      "vens": 7725,
      "tok": 7726,
      "▁обо": 7727,
      "▁Radi": 7728,
      "ashi": 7729,
      "▁Organization": 7730,
      "Health": 7731,
      "mf": 7732,
      "youtube": 7733,
      "▁Ми": 7734,
      "......": 7735,
      "▁Kind": 7736,
      ")}{\\": 7737,
      "▁zd": 7738,
      "▁ты": 7739,
      "▁Cos": 7740,
      "▁$(\"#": 7741,
      "▁исто": 7742,
      "ischer": 7743,
      "ierte": 7744,
      "▁Regional": 7745,
      "▁Premier": 7746,
      "IK": 7747,
      "brand": 7748,
      "▁Sound": 7749,
      "▁Affairs": 7750,
      "рон": 7751,
      "▁Steel": 7752,
      "▁Brad": 7753,
      "▁Works": 7754,
      "andra": 7755,
      "comb": 7756,
      "acker": 7757,
      "Happy": 7758,
      "bud": 7759,
      "athers": 7760,
      "}{|": 7761,
      "шь": 7762,
      "▁$('#": 7763,
      "▁targeted": 7764,
      "=\"#\">": 7765,
      "мент": 7766,
      "once": 7767,
      "ingham": 7768,
      "▁ms": 7769,
      "▁ві": 7770,
      "▁Edge": 7771,
      "rf": 7772,
      "щения": 7773,
      "▁Grad": 7774,
      "▁ski": 7775,
      "ič": 7776,
      "eton": 7777,
      "▁violation": 7778,
      "▁$.": 7779,
      "▁affairs": 7780,
      "▁Photo": 7781,
      "eries": 7782,
      "▁'';": 7783,
      "▁Fast": 7784,
      "▁просто": 7785,
      "▁може": 7786,
      "West": 7787,
      "▁Relations": 7788,
      "Hor": 7789,
      "тки": 7790,
      "!=": 7791,
      "▁Pos": 7792,
      "вання": 7793,
      "▁Altern": 7794,
      "▁dw": 7795,
      "▁Па": 7796,
      "origin": 7797,
      "▁сред": 7798,
      "▁Range": 7799,
      "▁dealer": 7800,
      "▁emerging": 7801,
      "▁година": 7802,
      "aver": 7803,
      "igos": 7804,
      "Real": 7805,
      "ческих": 7806,
      "acio": 7807,
      "▁стро": 7808,
      "Bad": 7809,
      "ieg": 7810,
      "apes": 7811,
      "▁Season": 7812,
      "heart": 7813,
      "▁Esc": 7814,
      "chart": 7815,
      "йти": 7816,
      "▁Pitt": 7817,
      "▁Tan": 7818,
      "rico": 7819,
      "nosti": 7820,
      "৭১": 7821,
      "▁Kol": 7822,
      "sy": 7823,
      "▁Rap": 7824,
      "▁Obama": 7825,
      "▁Past": 7826,
      "▁Hollywood": 7827,
      "minute": 7828,
      "▁Pra": 7829,
      "▁Must": 7830,
      "gon": 7831,
      "Plus": 7832,
      "▁Experience": 7833,
      "▁Foreign": 7834,
      "Selection": 7835,
      "▁Send": 7836,
      "▁тер": 7837,
      "смо": 7838,
      "▁mobil": 7839,
      "abad": 7840,
      "▁announcement": 7841,
      "▁случа": 7842,
      "▁ю": 7843,
      "▁Random": 7844,
      "▁Ci": 7845,
      "▁Lang": 7846,
      "Great": 7847,
      "▁Simon": 7848,
      "▁Toronto": 7849,
      "стве": 7850,
      "vard": 7851,
      "ordon": 7852,
      "avan": 7853,
      "▁Chi": 7854,
      "▁когда": 7855,
      "▁(`": 7856,
      "▁Marine": 7857,
      "▁Death": 7858,
      "льта": 7859,
      "/(": 7860,
      "▁bundle": 7861,
      "osti": 7862,
      "▁Industry": 7863,
      "aters": 7864,
      "far": 7865,
      "▁который": 7866,
      "▁поло": 7867,
      "▁Bry": 7868,
      "▁lid": 7869,
      "/*!": 7870,
      "iku": 7871,
      "sil": 7872,
      "[:,": 7873,
      "station": 7874,
      "archy": 7875,
      "bone": 7876,
      "станов": 7877,
      "exe": 7878,
      "▁cargo": 7879,
      "Switch": 7880,
      "▁weapon": 7881,
      "▁tonight": 7882,
      "ropol": 7883,
      "ayan": 7884,
      "дно": 7885,
      "▁Diego": 7886,
      "aji": 7887,
      "▁Turkey": 7888,
      "▁Row": 7889,
      "eron": 7890,
      "▁Liver": 7891,
      "▁Arizona": 7892,
      "▁Sydney": 7893,
      "abul": 7894,
      ")?": 7895,
      "▁Nik": 7896,
      "▁Him": 7897,
      "▁Intel": 7898,
      "rac": 7899,
      "▁Mut": 7900,
      "▁Come": 7901,
      "▁dru": 7902,
      "▁Tat": 7903,
      "▁votes": 7904,
      "▁leak": 7905,
      ")->": 7906,
      "▁Amb": 7907,
      "esto": 7908,
      "▁gri": 7909,
      "auc": 7910,
      "▁Kle": 7911,
      "▁'''": 7912,
      "▁Third": 7913,
      "▁Oak": 7914,
      "▁Terr": 7915,
      "opol": 7916,
      "▁・": 7917,
      "uo": 7918,
      "▁этого": 7919,
      ")^{-": 7920,
      "walk": 7921,
      "▁Happy": 7922,
      "лары": 7923,
      "usk": 7924,
      "iek": 7925,
      "▁JavaScript": 7926,
      "ourt": 7927,
      "▁Mos": 7928,
      "network": 7929,
      "▁/>}": 7930,
      "▁Hom": 7931,
      "▁corps": 7932,
      "das": 7933,
      "(['": 7934,
      "Sen": 7935,
      "▁];": 7936,
      ",’": 7937,
      "▁проце": 7938,
      "]$.": 7939,
      "hit": 7940,
      "Miss": 7941,
      "}&": 7942,
      "годня": 7943,
      "▁----": 7944,
      "лом": 7945,
      "▁отно": 7946,
      "▁свои": 7947,
      "▁Grant": 7948,
      "▁Excel": 7949,
      "▁\\,": 7950,
      "▁Ry": 7951,
      "нием": 7952,
      "zek": 7953,
      "нт": 7954,
      "▁Cover": 7955,
      "льные": 7956,
      "iev": 7957,
      "▁Ty": 7958,
      "mount": 7959,
      "builder": 7960,
      "stick": 7961,
      "▁Trib": 7962,
      "▁Chemical": 7963,
      "▁Blood": 7964,
      "▁је": 7965,
      "}|": 7966,
      "National": 7967,
      "aid": 7968,
      "anqu": 7969,
      "▁Rol": 7970,
      "▁Democratic": 7971,
      "нее": 7972,
      "▁Ryan": 7973,
      "Lock": 7974,
      "cross": 7975,
      "▁forme": 7976,
      "ulture": 7977,
      "olen": 7978,
      "▁Victor": 7979,
      "▁Books": 7980,
      "▁\"../": 7981,
      "▁hospitals": 7982,
      "▁Credit": 7983,
      "торы": 7984,
      "▁Hold": 7985,
      "▁iOS": 7986,
      "▁Mak": 7987,
      "▁Allen": 7988,
      "dog": 7989,
      "Age": 7990,
      "▁Tokyo": 7991,
      "▁съ": 7992,
      "Cross": 7993,
      "▁меня": 7994,
      "▁Atlantic": 7995,
      "дели": 7996,
      "▁Style": 7997,
      "▁१": 7998,
      "ками": 7999,
      "JS": 8000,
      "others": 8001,
      "▁дей": 8002,
      "рабо": 8003,
      "▁Hans": 8004,
      "aq": 8005,
      ",$": 8006,
      "kle": 8007,
      "Standard": 8008,
      "]}": 8009,
      "Ing": 8010,
      "▁Cookies": 8011,
      "▁Cancer": 8012,
      "▁Website": 8013,
      "ání": 8014,
      "dm": 8015,
      "▁поз": 8016,
      "▁органи": 8017,
      "▁Awards": 8018,
      "▁Bond": 8019,
      "▁Brian": 8020,
      "луч": 8021,
      "шения": 8022,
      "ники": 8023,
      ";//": 8024,
      "▁Insurance": 8025,
      "▁Single": 8026,
      "orum": 8027,
      "▁Kat": 8028,
      "▁каж": 8029,
      "ях": 8030,
      "▁Samsung": 8031,
      "телей": 8032,
      "vd": 8033,
      "`.": 8034,
      "▁safely": 8035,
      "ró": 8036,
      "▁Yu": 8037,
      "}\",": 8038,
      "++++++++": 8039,
      "facebook": 8040,
      "▁Tam": 8041,
      "!\");": 8042,
      "▁Вы": 8043,
      "нти": 8044,
      "▁headed": 8045,
      "/-": 8046,
      "=\"_": 8047,
      "▁​​": 8048,
      "Prom": 8049,
      "enium": 8050,
      "▁Body": 8051,
      "vs": 8052,
      "ції": 8053,
      "\\|_{": 8054,
      "...\\": 8055,
      "pler": 8056,
      "▁прави": 8057,
      "vil": 8058,
      "utz": 8059,
      "▁До": 8060,
      "suit": 8061,
      "▁Balt": 8062,
      "▁Nation": 8063,
      "гы": 8064,
      "ску": 8065,
      "▁Fra": 8066,
      "▁Bab": 8067,
      "rosc": 8068,
      "sez": 8069,
      "।”": 8070,
      "fp": 8071,
      "▁Stone": 8072,
      "▁Culture": 8073,
      "▁Remember": 8074,
      "runner": 8075,
      "othe": 8076,
      "jos": 8077,
      "ал": 8078,
      "▁Pennsylvania": 8079,
      "▁Easy": 8080,
      "▁Iron": 8081,
      "▁Switch": 8082,
      "ths": 8083,
      "tz": 8084,
      "▁том": 8085,
      "бол": 8086,
      "▁жиз": 8087,
      "▁kilomet": 8088,
      "、「": 8089,
      "▁Mun": 8090,
      "бор": 8091,
      "▁букмекер": 8092,
      "Children": 8093,
      "▁Rain": 8094,
      "aque": 8095,
      "▁৬": 8096,
      "▁Afghan": 8097,
      "▁лет": 8098,
      "▁Jay": 8099,
      "▁день": 8100,
      "нения": 8101,
      "▁Jacob": 8102,
      "▁дома": 8103,
      "▁Sarah": 8104,
      "'-": 8105,
      "▁Channel": 8106,
      "▁zn": 8107,
      "==\"": 8108,
      "eks": 8109,
      "\\\"\",": 8110,
      "▁ө": 8111,
      "ким": 8112,
      "чита": 8113,
      "При": 8114,
      "кре": 8115,
      "udar": 8116,
      "▁Korean": 8117,
      "rose": 8118,
      "Elect": 8119,
      "nih": 8120,
      "jack": 8121,
[...]
