{"model": {"type": "BPE", "vocab": {"<unk>": 0, "<s>": 1, "</s>": 2, "<pad>": 3, "<0x00>": 4, "<0x01>": 5, "<0x02>": 6, "<0x03>": 7, "<0x04>": 8, "<0x05>": 9, "<0x06>": 10, "<0x07>": 11, "<0x08>": 12, "<0x09>": 13, "<0x0A>": 14, "<0x0B>": 15, "<0x0C>": 16, "<0x0D>": 17, "<0x0E>": 18, "<0x0F>": 19, "<0x10>": 20, "<0x11>": 21, "<0x12>": 22, "<0x13>": 23, "<0x14>": 24, "<0x15>": 25, "<0x16>": 26, "<0x17>": 27, "<0x18>": 28, "<0x19>": 29, "<0x1A>": 30, "<0x1B>": 31, "<0x1C>": 32, "<0x1D>": 33, "<0x1E>": 34, "<0x1F>": 35, "<0x20>": 36, "<0x21>": 37, "<0x22>": 38, "<0x23>": 39, "<0x24>": 40, "<0x25>": 41, "<0x26>": 42, "<0x27>": 43, "<0x28>": 44, "<0x29>": 45, "<0x2A>": 46, "<0x2B>": 47, "<0x2C>": 48, "<0x2D>": 49, "<0x2E>": 50, "<0x2F>": 51, "<0x30>": 52, "<0x31>": 53, "<0x32>": 54, "<0x33>": 55, "<0x34>": 56, "<0x35>": 57, "<0x36>": 58, "<0x37>": 59, "<0x38>": 60, "<0x39>": 61, "<0x3A>": 62, "<0x3B>": 63, "<0x3C>": 64, "<0x3D>": 65, "<0x3E>": 66, "<0x3F>": 67, "<0x40>": 68, "<0x41>": 69, "<0x42>": 70, "<0x43>": 71, "<0x44>": 72, "<0x45>": 73, "<0x46>": 74, "<0x47>": 75, "<0x48>": 76, "<0x49>": 77, "<0x4A>": 78, "<0x4B>": 79, "<0x4C>": 80, "<0x4D>": 81, "<0x4E>": 82, "<0x4F>": 83, "<0x50>": 84, "<0x51>": 85, "<0x52>": 86, "<0x53>": 87, "<0x54>": 88, "<0x55>": 89, "<0x56>": 90, "<0x57>": 91, "<0x58>": 92, "<0x59>": 93, "<0x5A>": 94, "<0x5B>": 95, "<0x5C>": 96, "<0x5D>": 97, "<0x5E>": 98, "<0x5F>": 99, "<0x60>": 100, "<0x61>": 101, "<0x62>": 102, "<0x63>": 103, "<0x64>": 104, "<0x65>": 105, "<0x66>": 106, "<0x67>": 107, "<0x68>": 108, "<0x69>": 109, "<0x6A>": 110, "<0x6B>": 111, "<0x6C>": 112, "<0x6D>": 113, "<0x6E>": 114, "<0x6F>": 115, "<0x70>": 116, "<0x71>": 117, "<0x72>": 118, "<0x73>": 119, "<0x74>": 120, "<0x75>": 121, "<0x76>": 122, "<0x77>": 123, "<0x78>": 124, "<0x79>": 125, "<0x7A>": 126, "<0x7B>": 127, "<0x7C>": 128, "<0x7D>": 129, "<0x7E>": 130, "<0x7F>": 131, "<0x80>": 132, "<0x81>": 133, "<0x82>": 134, "<0x83>": 135, "<0x84>": 136, "<0x85>": 137, "<0x86>": 138, "<0x87>": 139, "<0x88>": 140, "<0x89>": 141, "<0x8A>": 142, "<0x8B>": 143, "<0x8C>": 144, "<0x8D>": 145, "<0x8E>": 146, "<0x8F>": 147, "<0x90>": 148, "<0x91>": 149, "<0x92>": 150, "<0x93>": 151, "<0x94>": 152, "<0x95>": 153, "<0x96>": 154, "<0x97>": 155, "<0x98>": 156, "<0x99>": 157, "<0x9A>": 158, "<0x9B>": 159, "<0x9C>": 160, "<0x9D>": 161, "<0x9E>": 162, "<0x9F>": 163, "<0xA0>": 164, "<0xA1>": 165, "<0xA2>": 166, "<0xA3>": 167, "<0xA4>": 168, "<0xA5>": 169, "<0xA6>": 170, "<0xA7>": 171, "<0xA8>": 172, "<0xA9>": 173, "<0xAA>": 174, "<0xAB>": 175, "<0xAC>": 176, "<0xAD>": 177, "<0xAE>": 178, "<0xAF>": 179, "<0xB0>": 180, "<0xB1>": 181, "<0xB2>": 182, "<0xB3>": 183, "<0xB4>": 184, "<0xB5>": 185, "<0xB6>": 186, "<0xB7>": 187, "<0xB8>": 188, "<0xB9>": 189, "<0xBA>": 190, "<0xBB>": 191, "<0xBC>": 192, "<0xBD>": 193, "<0xBE>": 194, "<0xBF>": 195, "<0xC0>": 196, "<0xC1>": 197, "<0xC2>": 198, "<0xC3>": 199, "<0xC4>": 200, "<0xC5>": 201, "<0xC6>": 202, "<0xC7>": 203, "<0xC8>": 204, "<0xC9>": 205, "<0xCA>": 206, "<0xCB>": 207, "<0xCC>": 208, "<0xCD>": 209, "<0xCE>": 210, "<0xCF>": 211, "<0xD0>": 212, "<0xD1>": 213, "<0xD2>": 214, "<0xD3>": 215, "<0xD4>": 216, "<0xD5>": 217, "<0xD6>": 218, "<0xD7>": 219, "<0xD8>": 220, "<0xD9>": 221, "<0xDA>": 222, "<0xDB>": 223, "<0xDC>": 224, "<0xDD>": 225, "<0xDE>": 226, "<0xDF>": 227, "<0xE0>": 228, "<0xE1>": 229, "<0xE2>": 230, "<0xE3>": 231, "<0xE4>": 232, "<0xE5>": 233, "<0xE6>": 234, "<0xE7>": 235, "<0xE8>": 236, "<0xE9>": 237, "<0xEA>": 238, "<0xEB>": 239, "<0xEC>": 240, "<0xED>": 241, "<0xEE>": 242, "<0xEF>": 243, "<0xF0>": 244, "<0xF1>": 245, "<0xF2>": 246, "<0xF3>": 247, "<0xF4>": 248, "<0xF5>": 249, "<0xF6>": 250, "<0xF7>": 251, "<0xF8>": 252, "<0xF9>": 253, "<0xFA>": 254, "<0xFB>": 255, "<0xFC>": 256, "<0xFD>": 257, "<0xFE>": 258, "<0xFF>": 259, "▁": 260, "s": 261, ",": 262, ".": 263, "'": 264, "▁the": 265, "▁to": 266, "▁a": 267, "▁I": 268, "▁and": 269, "▁you": 270, "▁that": 271, "▁of": 272, "ing": 273, "t": 274, "▁it": 275, "▁in": 276, "▁is": 277, "ed": 278, "▁be": 279, "re": 280, "▁we": 281, "▁like": 282, "m": 283, "▁for": 284, "▁this": 285, "▁was": 286, "▁And": 287, "▁on": 288, "▁know": 289, "▁have": 290, "▁with": 291, "?": 292, "▁they": 293, "▁so": 294, "er": 295, "▁just": 296, "▁what": 297, "▁So": 298, "▁do": 299, "▁not": 300, "▁some": 301, "▁he": 302, "▁can": 303, "▁are": 304, "▁but": 305, "n": 306, "d": 307, "▁me": 308, "▁at": 309, "▁there": 310, "▁or": 311, "▁your": 312, "▁my": 313, "ve": 314, "▁about": 315, "0": 316, "▁all": 317, "▁get": 318, "▁think": 319, "cause": 320, "▁out": 321, "▁one": 322, "ly": 323, "▁p": 324, "▁going": 325, "al": 326, "y": 327, "▁if": 328, "▁as": 329, "▁up": 330, "▁c": 331, "▁don": 332, "▁It": 333, "r": 334, "ll": 335, "e": 336, "-": 337, "▁re": 338, "▁thing": 339, "▁from": 340, "1": 341, "really": 342, "▁You": 343, "thing": 344, "▁right": 345, "people": 346, "▁want": 347, "▁when": 348, "ally": 349, "▁go": 350, "▁then": 351, "▁But": 352, "▁an": 353, "▁no": 354, "▁had": 355, "in": 356, "▁Yeah": 357, "▁would": 358, "▁say": 359, "▁them": 360, "▁time": 361, "a": 362, "tion": 363, "▁The": 364, "2": 365, "▁more": 366, "▁how": 367, "▁see": 368, "▁got": 369, "▁our": 370, "es": 371, "▁now": 372, "▁who": 373, "▁We": 374, "▁here": 375, "▁his": 376, "▁will": 377, "▁by": 378, "▁were": 379, "▁every": 380, "▁kind": 381, "▁back": 382, "▁A": 383, "▁look": 384, "▁been": 385, "▁their": 386, "▁very": 387, "▁which": 388, "▁That": 389, "▁into": 390, "▁where": 391, "▁has": 392, "o": 393, "▁way": 394, "▁good": 395, "▁she": 396, "▁other": 397, "▁lot": 398, "▁mean": 399, "▁work": 400, "p": 401, "▁e": 402, "▁these": 403, "▁de": 404, "i": 405, "▁i": 406, "▁yeah": 407, "▁over": 408, "▁us": 409, "le": 410, "▁him": 411, "▁talk": 412, "ers": 413, "▁He": 414, "little": 415, "▁well": 416, "▁pr": 417, "▁even": 418, "ion": 419, "▁could": 420, "▁make": 421, "▁need": 422, "▁those": 423, "▁actu": 424, "▁said": 425, "▁start": 426, "▁t": 427, "l": 428, "▁her": 429, "▁con": 430, "ation": 431, "▁did": 432, "▁also": 433, "▁two": 434, "▁down": 435, "▁much": 436, "5": 437, "▁They": 438, "en": 439, "c": 440, "▁feel": 441, "ting": 442, "▁first": 443, "▁C": 444, "though": 445, "▁S": 446, "▁any": 447, "or": 448, "on": 449, "3": 450, "ment": 451, "▁let": 452, "g": 453, "▁take": 454, "one": 455, "an": 456, "il": 457, "▁part": 458, "rent": 459, "hrough": 460, "▁play": 461, "▁diffe": 462, "▁love": 463, "▁com": 464, "th": 465, "▁show": 466, "▁come": 467, "▁than": 468, "▁bit": 469, "▁put": 470, "ra": 471, "ness": 472, "▁doing": 473, "▁This": 474, "▁off": 475, "ity": 476, "▁What": 477, "▁life": 478, "w": 479, "▁Oh": 480, "▁great": 481, "ever": 482, "u": 483, "happen": 484, "ic": 485, "ar": 486, "4": 487, "▁day": 488, "ro": 489, "▁st": 490, "▁only": 491, "ate": 492, "▁didn": 493, "▁still": 494, "able": 495, "▁F": 496, "▁P": 497, "▁un": 498, "▁under": 499, "▁No": 500, "9": 501, "te": 502, "▁being": 503, "ch": 504, "▁Well": 505, "h": 506, "ry": 507, "▁inter": 508, "should": 509, "around": 510, "▁man": 511, "b": 512, "ur": 513, "▁new": 514, "▁years": 515, "el": 516, "▁again": 517, "k": 518, "▁point": 519, "▁E": 520, "▁f": 521, "▁too": 522, "▁give": 523, "▁God": 524, "▁help": 525, "▁why": 526, "▁tell": 527, "▁big": 528, "▁There": 529, "ent": 530, "before": 531, "ne": 532, "person": 533, "always": 534, "▁gonna": 535, "ke": 536, "body": 537, "▁If": 538, "▁Be": 539, "▁three": 540, "la": 541, "▁find": 542, "6": 543, "▁B": 544, "▁many": 545, "▁year": 546, "8": 547, "▁same": 548, "▁most": 549, "ta": 550, "▁oh": 551, "est": 552, "▁Now": 553, "▁after": 554, "▁last": 555, "▁maybe": 556, "▁b": 557, "▁never": 558, "na": 559, "▁might": 560, "op": 561, "it": 562, "se": 563, "▁end": 564, "▁In": 565, "li": 566, "▁use": 567, "x": 568, "▁Like": 569, "▁long": 570, "▁co": 571, "▁stuff": 572, "▁dis": 573, "ol": 574, "▁sure": 575, "ce": 576, "obably": 577, "▁world": 578, "7": 579, "nother": 580, "▁does": 581, "ri": 582, "▁call": 583, "▁real": 584, "member": 585, "us": 586, "▁sort": 587, "▁place": 588, "lo": 589, "age": 590, "▁own": 591, "▁imp": 592, "▁made": 593, "id": 594, "is": 595, "▁cha": 596, "et": 597, "▁next": 598, "ence": 599, "▁keep": 600, "f": 601, "▁T": 602, "ck": 603, "listen": 604, "▁g": 605, "▁ques": 606, "▁doesn": 607, "de": 608, "tive": 609, "▁Okay": 610, "▁okay": 611, "to": 612, "ma": 613, "▁y": 614, "▁done": 615, "▁try": 616, "▁game": 617, "▁G": 618, "better": 619, "▁guys": 620, "▁di": 621, "pretty": 622, "▁went": 623, "ful": 624, "ir": 625, "▁watch": 626, "number": 627, "odcast": 628, "out": 629, "▁today": 630, "▁week": 631, "tions": 632, "▁ma": 633, "ti": 634, "▁exper": 635, "friend": 636, "A": 637, "▁She": 638, "▁whole": 639, "S": 640, "ter": 641, "stand": 642, "▁away": 643, "▁hard": 644, "course": 645, "▁high": 646, "ru": 647, "▁home": 648, "▁All": 649, "▁busi": 650, "as": 651, "▁learn": 652, "v": 653, "▁able": 654, "ia": 655, "ary": 656, "▁M": 657, "▁best": 658, "▁team": 659, "ble": 660, "▁men": 661, "▁came": 662, "ad": 663, "mo": 664, "change": 665, "ty": 666, "ist": 667, "▁How": 668, "ical": 669, "▁r": 670, "▁may": 671, "having": 672, "at": 673, "▁money": 674, "▁pro": 675, "▁o": 676, "side": 677, "▁uh": 678, "▁name": 679, "me": 680, "▁pre": 681, "!": 682, "second": 683, "nd": 684, "ine": 685, "▁am": 686, "▁De": 687, "▁side": 688, "▁Do": 689, "z": 690, "▁guy": 691, "ver": 692, "▁read": 693, "▁\"": 694, "ite": 695, "▁Re": 696, "▁la": 697, "ience": 698, "▁mind": 699, "▁idea": 700, "▁hear": 701, "▁five": 702, "▁head": 703, "▁four": 704, "▁O": 705, "▁se": 706, "▁um": 707, "trying": 708, "▁th": 709, "▁Let": 710, "im": 711, "▁mo": 712, "▁Yes": 713, "▁N": 714, "▁few": 715, "called": 716, "no": 717, "gether": 718, "▁move": 719, "ie": 720, "coming": 721, "▁car": 722, "▁both": 723, "ously": 724, "ul": 725, "▁set": 726, "▁story": 727, "▁fuck": 728, "ction": 729, "▁open": 730, "▁old": 731, "C": 732, "▁ask": 733, "▁else": 734, "ortant": 735, "ward": 736, "▁power": 737, "lieve": 738, "ha": 739, "▁care": 740, "▁turn": 741, "▁Right": 742, "I": 743, "ies": 744, "é": 745, "▁ever": 746, "enough": 747, "▁used": 748, "ated": 749, "▁bring": 750, "▁fun": 751, "▁bad": 752, "▁found": 753, "▁each": 754, "▁book": 755, "co": 756, "▁fact": 757, "reason": 758, "P": 759, "▁live": 760, "▁per": 761, "▁When": 762, "▁while": 763, "▁Thank": 764, "times": 765, "um": 766, "ton": 767, "▁D": 768, "▁R": 769, "▁creat": 770, "ho": 771, "▁d": 772, "▁defin": 773, "▁line": 774, "▁guess": 775, "▁quite": 776, "pe": 777, "man": 778, "▁build": 779, "▁en": 780, "rself": 781, "pisode": 782, "moment": 783, "▁yes": 784, "▁basic": 785, "▁video": 786, "▁night": 787, "couple": 788, "making": 789, "▁month": 790, "▁run": 791, "lu": 792, "lready": 793, "▁To": 794, "da": 795, "▁goes": 796, "D": 797, "▁For": 798, "...": 799, "ga": 800, "▁ex": 801, "▁po": 802, "▁says": 803, "▁free": 804, "ut": 805, "ance": 806, "▁job": 807, "ng": 808, "ach": 809, "▁seen": 810, "و": 811, "up": 812, "un": 813, "tween": 814, "▁won": 815, "ant": 816, "▁such": 817, "▁hope": 818, "▁comes": 819, "▁cool": 820, "▁house": 821, "tional": 822, "▁pass": 823, "▁water": 824, "▁walk": 825, "▁light": 826, "esting": 827, "▁Ma": 828, "▁h": 829, "ations": 830, "ni": 831, "▁pa": 832, "minute": 833, "▁bo": 834, "▁times": 835, "les": 836, "ر": 837, "▁case": 838, "▁far": 839, "▁child": 840, "ca": 841, "▁bu": 842, "▁sound": 843, "ard": 844, "▁wasn": 845, "▁que": 846, "day": 847, "system": 848, "▁hand": 849, "vi": 850, "ish": 851, "ci": 852, "▁speci": 853, "T": 854, "school": 855, "son": 856, "▁gener": 857, "▁once": 858, "▁w": 859, "▁small": 860, "am": 861, "▁K": 862, "ture": 863, "M": 864, "▁trans": 865, "▁left": 866, "itely": 867, "all": 868, "ag": 869, "family": 870, "▁V": 871, "ous": 872, "om": 873, "▁movie": 874, "ice": 875, "ions": 876, "م": 877, "▁anyth": 878, "ian": 879, "follow": 880, "▁top": 881, "▁pay": 882, "be": 883, "▁nice": 884, "%": 885, "▁thank": 886, "▁saw": 887, "▁cur": 888, "he": 889, "ge": 890, "▁ba": 891, "▁half": 892, "▁lead": 893, "roblem": 894, "▁La": 895, "▁rec": 896, "em": 897, "va": 898, "dy": 899, "bility": 900, "▁ca": 901, "ten": 902, "▁exact": 903, "di": 904, "▁obvi": 905, "ey": 906, "▁deal": 907, "ssion": 908, "▁pick": 909, "▁sub": 910, "xample": 911, "become": 912, "▁na": 913, "▁My": 914, "market": 915, "che": 916, "where": 917, "tor": 918, "self": 919, "▁hit": 920, "▁posi": 921, "myself": 922, "ي": 923, "com": 924, "▁six": 925, "▁stand": 926, "▁check": 927, "▁U": 928, "▁Just": 929, "▁close": 930, "▁speak": 931, "▁state": 932, "▁fan": 933, "▁wait": 934, "▁break": 935, "ster": 936, "ive": 937, "ren": 938, "ka": 939, "▁W": 940, "R": 941, "▁music": 942, "▁super": 943, "▁level": 944, "almost": 945, "spect": 946, "▁space": 947, "tic": 948, "ak": 949, "▁sense": 950, "▁grow": 951, "▁As": 952, "▁n": 953, "ially": 954, "▁took": 955, "▁cons": 956, "B": 957, "selves": 958, "season": 959, "ig": 960, "ook": 961, "pa": 962, "▁L": 963, "utely": 964, "▁k": 965, "ments": 966, "os": 967, "▁Jesus": 968, "▁days": 969, "▁Ro": 970, "▁ago": 971, "land": 972, "▁heart": 973, "د": 974, "▁Chris": 975, "▁quick": 976, "cu": 977, "matter": 978, "▁face": 979, "ted": 980, "▁Some": 981, "do": 982, "und": 983, "▁mi": 984, "▁true": 985, "▁stay": 986, "▁Pa": 987, "▁hold": 988, "O": 989, "▁type": 990, "▁tr": 991, "less": 992, "▁H": 993, "line": 994, "upport": 995, "gainst": 996, "▁least": 997, "▁word": 998, "answer": 999, "j": 1000, "▁step": 1001, "▁heard": 1002, "▁hi": 1003, "ling": 1004, "mi": 1005, "▁sa": 1006, "either": 1007, "▁buy": 1008, "▁rest": 1009, "▁St": 1010, "▁comp": 1011, "fic": 1012, "ا": 1013, "ت": 1014, "▁makes": 1015, "ically": 1016, "ang": 1017, "produc": 1018, "E": 1019, "▁vi": 1020, "taking": 1021, "form": 1022, "ن": 1023, "▁since": 1024, "ot": 1025, "▁count": 1026, "▁shit": 1027, "sh": 1028, "resent": 1029, "▁until": 1030, "conver": 1031, "▁young": 1032, "▁Ha": 1033, "▁kids": 1034, "▁Or": 1035, "▁New": 1036, "▁leave": 1037, "ground": 1038, "▁miss": 1039, "▁hey": 1040, "▁l": 1041, "▁told": 1042, "▁song": 1043, "▁means": 1044, "ure": 1045, "▁ho": 1046, "▁full": 1047, "▁cut": 1048, "▁using": 1049, "▁sc": 1050, "▁body": 1051, "▁group": 1052, "▁Go": 1053, "▁absol": 1054, "▁room": 1055, "onship": 1056, "▁human": 1057, "▁sur": 1058, "▁allow": 1059, "red": 1060, "▁yet": 1061, "lar": 1062, "ries": 1063, "▁One": 1064, "au": 1065, "▁Mo": 1066, "search": 1067, "е": 1068, "▁sh": 1069, "ه": 1070, "▁Le": 1071, "ل": 1072, "hy": 1073, "▁air": 1074, "vo": 1075, "▁Ba": 1076, "▁area": 1077, "ba": 1078, "▁stop": 1079, "ow": 1080, "▁clear": 1081, "▁wrong": 1082, "mazing": 1083, "▁lo": 1084, "fully": 1085, "per": 1086, "go": 1087, "wa": 1088, "▁possi": 1089, "ی": 1090, "tro": 1091, "▁past": 1092, "▁da": 1093, "tory": 1094, "expect": 1095, "and": 1096, "ition": 1097, "▁wheth": 1098, "▁issue": 1099, "▁writ": 1100, "fi": 1101, "▁Ja": 1102, "▁piece": 1103, "▁ha": 1104, "ah": 1105, "wi": 1106, "▁order": 1107, "▁espec": 1108, "ner": 1109, "relati": 1110, "▁knew": 1111, "▁isn": 1112, "▁focus": 1113, "tain": 1114, "▁test": 1115, "▁bi": 1116, "▁Ho": 1117, "gu": 1118, "record": 1119, "▁yn": 1120, "▁food": 1121, "▁later": 1122, "ap": 1123, "▁$": 1124, "ompany": 1125, "▁girl": 1126, "▁must": 1127, "▁excit": 1128, "gg": 1129, "▁Ca": 1130, "od": 1131, "▁Bo": 1132, "▁plan": 1133, "▁meet": 1134, "▁sp": 1135, "▁Se": 1136, "▁succe": 1137, "▁less": 1138, "ize": 1139, "icular": 1140, "row": 1141, "ld": 1142, "▁teach": 1143, "ip": 1144, "ontrol": 1145, "bo": 1146, "▁star": 1147, "▁share": 1148, "light": 1149, "ball": 1150, "mation": 1151, "▁rep": 1152, "▁value": 1153, "▁train": 1154, "sive": 1155, "rence": 1156, "qui": 1157, "▁techn": 1158, "▁certa": 1159, "▁Then": 1160, "ities": 1161, "po": 1162, "way": 1163, "▁Me": 1164, "▁short": 1165, "▁main": 1166, "▁fall": 1167, "wards": 1168, "▁Sa": 1169, "tra": 1170, "L": 1171, "▁often": 1172, "bi": 1173, "▁class": 1174, "▁Li": 1175, "ger": 1176, "ep": 1177, "▁win": 1178, "iv": 1179, "▁mu": 1180, "▁along": 1181, "å": 1182, "▁OK": 1183, "▁front": 1184, "during": 1185, "▁du": 1186, "ating": 1187, "led": 1188, "ism": 1189, "▁easy": 1190, "ator": 1191, "▁enjoy": 1192, "ber": 1193, "▁haven": 1194, "▁situa": 1195, "▁black": 1196, "energy": 1197, "▁det": 1198, "▁women": 1199, "N": 1200, "▁Don": 1201, "parent": 1202, "▁Why": 1203, "▁fire": 1204, "der": 1205, "▁le": 1206, "▁fight": 1207, "▁chang": 1208, "ement": 1209, "can": 1210, "▁foot": 1211, "▁Na": 1212, "▁Ra": 1213, "create": 1214, "▁add": 1215, "ron": 1216, "F": 1217, "stead": 1218, "▁des": 1219, "▁morn": 1220, "▁Co": 1221, "ab": 1222, "▁eat": 1223, "▁felt": 1224, "▁runn": 1225, "we": 1226, "ning": 1227, "▁post": 1228, "pi": 1229, ";": 1230, "ny": 1231, "▁Lord": 1232, "racter": 1233, "behind": 1234, "▁Can": 1235, "▁bea": 1236, "▁favor": 1237, "▁ready": 1238, "ee": 1239, "single": 1240, "▁seven": 1241, "▁war": 1242, "health": 1243, "social": 1244, "▁happy": 1245, "io": 1246, "▁liter": 1247, "▁bar": 1248, "across": 1249, "action": 1250, "▁Not": 1251, "▁mill": 1252, "▁gone": 1253, "▁huge": 1254, "mp": 1255, "▁early": 1256, "ple": 1257, "hu": 1258, "▁Every": 1259, "tract": 1260, "▁die": 1261, "rd": 1262, "▁infor": 1263, "ration": 1264, "▁final": 1265, "▁Da": 1266, "ric": 1267, "▁direc": 1268, "▁gra": 1269, "fo": 1270, "▁Al": 1271, "▁film": 1272, "fe": 1273, "▁large": 1274, "gen": 1275, "strong": 1276, "▁disc": 1277, "▁fa": 1278, "▁boy": 1279, "▁pull": 1280, "ology": 1281, "utiful": 1282, "▁va": 1283, "▁looks": 1284, "sta": 1285, "rocess": 1286, "▁Y": 1287, "nation": 1288, "figure": 1289, "honest": 1290, "▁form": 1291, "tri": 1292, "▁Wa": 1293, "ع": 1294, "▁fine": 1295, "▁door": 1296, "▁cover": 1297, "ious": 1298, "▁land": 1299, "▁words": 1300, "▁list": 1301, "▁sign": 1302, "ris": 1303, "gi": 1304, "▁oppor": 1305, "▁write": 1306, "rate": 1307, "living": 1308, "▁crazy": 1309, "▁seems": 1310, "▁John": 1311, "time": 1312, "▁terms": 1313, "val": 1314, "ervice": 1315, "▁appro": 1316, "port": 1317, "erfect": 1318, "▁Di": 1319, "▁har": 1320, "▁plus": 1321, "▁ال": 1322, "giving": 1323, "▁Maybe": 1324, "ors": 1325, "night": 1326, "▁push": 1327, "▁join": 1328, "▁Mar": 1329, "G": 1330, "con": 1331, "entire": 1332, "munity": 1333, "▁sit": 1334, "▁reach": 1335, "▁elect": 1336, "▁data": 1337, "▁agree": 1338, "oo": 1339, "▁asked": 1340, "▁On": 1341, "▁send": 1342, "ide": 1343, "future": 1344, "▁sell": 1345, "ft": 1346, "jo": 1347, "▁ni": 1348, "ctor": 1349, "ff": 1350, "depend": 1351, "▁self": 1352, "▁ac": 1353, "ub": 1354, "▁phone": 1355, "H": 1356, "king": 1357, "س": 1358, "ou": 1359, "amount": 1360, "▁ja": 1361, "▁fin": 1362, "bb": 1363, "end": 1364, "▁coach": 1365, "▁kid": 1366, "ertain": 1367, "letely": 1368, "▁ball": 1369, "moving": 1370, "▁hours": 1371, "▁manag": 1372, "▁spend": 1373, "▁usual": 1374, "▁kill": 1375, "ick": 1376, "▁su": 1377, "▁touch": 1378, "result": 1379, "ä": 1380, "mb": 1381, "▁diff": 1382, "▁pictu": 1383, "mother": 1384, "ial": 1385, "▁gen": 1386, "▁arm": 1387, "▁media": 1388, "ear": 1389, "anyway": 1390, "▁At": 1391, "▁lost": 1392, "▁je": 1393, "tinue": 1394, "▁weird": 1395, "source": 1396, "▁Je": 1397, "и": 1398, "▁baby": 1399, "ell": 1400, "old": 1401, "▁key": 1402, "▁multi": 1403, "с": 1404, "▁deep": 1405, "▁equal": 1406, "▁given": 1407, "▁white": 1408, "а": 1409, "▁pe": 1410, "gram": 1411, "▁Um": 1412, "men": 1413, "о": 1414, "emp": 1415, "▁gave": 1416, "ك": 1417, "▁low": 1418, "ph": 1419, "▁fast": 1420, "wn": 1421, "▁Man": 1422, "▁eight": 1423, "▁ahead": 1424, "▁eyes": 1425, "▁journ": 1426, "י": 1427, "ler": 1428, "ient": 1429, "ise": 1430, "qu": 1431, "▁law": 1432, "▁Lo": 1433, "▁Ameri": 1434, "ized": 1435, "▁funny": 1436, "▁event": 1437, "our": 1438, "▁Here": 1439, "wonder": 1440, "▁app": 1441, "▁offer": 1442, "▁An": 1443, "rogram": 1444, "▁Hi": 1445, "▁Hey": 1446, ".\"": 1447, "▁art": 1448, "hi": 1449, "cho": 1450, "▁v": 1451, "vision": 1452, "design": 1453, "▁takes": 1454, "▁Ar": 1455, "▁Po": 1456, "▁woman": 1457, "▁Mi": 1458, "▁Who": 1459, "lock": 1460, "tioned": 1461, "á": 1462, "▁games": 1463, "ac": 1464, "▁throw": 1465, "nder": 1466, "view": 1467, "▁ju": 1468, "rought": 1469, "og": 1470, "ud": 1471, "▁sent": 1472, "icult": 1473, "▁third": 1474, "public": 1475, "▁Sp": 1476, "▁brain": 1477, "▁decis": 1478, "▁hundr": 1479, "▁fit": 1480, "dollar": 1481, "▁neces": 1482, "▁voice": 1483, "▁J": 1484, "ify": 1485, "▁Con": 1486, "ade": 1487, "▁soon": 1488, "▁Un": 1489, "▁cap": 1490, "lin": 1491, "father": 1492, "tter": 1493, "lan": 1494, "wesome": 1495, "uck": 1496, "▁dog": 1497, "by": 1498, "ob": 1499, "ب": 1500, "▁ten": 1501, "▁si": 1502, "den": 1503, "▁track": 1504, "ze": 1505, "▁chi": 1506, "appear": 1507, "chance": 1508, "llenge": 1509, "▁shot": 1510, "▁sorry": 1511, "tories": 1512, "▁nega": 1513, "▁Te": 1514, "▁para": 1515, "▁god": 1516, "▁view": 1517, "rather": 1518, "▁Mr": 1519, "ו": 1520, "▁drink": 1521, "▁hour": 1522, "ugh": 1523, "▁These": 1524, "lic": 1525, "▁hot": 1526, "late": 1527, "▁incre": 1528, "▁serv": 1529, "please": 1530, "terest": 1531, "▁field": 1532, "ently": 1533, "▁dark": 1534, "▁relat": 1535, "stance": 1536, "ai": 1537, "ya": 1538, "V": 1539, "▁Ka": 1540, "custom": 1541, "church": 1542, "▁expla": 1543, "▁Ju": 1544, "▁seem": 1545, "ousand": 1546, "ency": 1547, "finish": 1548, "▁pi": 1549, "▁ways": 1550, "ح": 1551, "▁exist": 1552, "nc": 1553, "▁dead": 1554, "▁Dr": 1555, "client": 1556, "▁Z": 1557, "sider": 1558, "▁trust": 1559, "gest": 1560, "gan": 1561, "han": 1562, "W": 1563, "▁Are": 1564, "ace": 1565, "graph": 1566, "travel": 1567, "invest": 1568, "▁news": 1569, "ki": 1570, "▁fear": 1571, "nk": 1572, "imilar": 1573, "▁emo": 1574, "suppos": 1575, "cla": 1576, "iz": 1577, "▁flow": 1578, "bu": 1579, "load": 1580, "▁based": 1581, "▁weeks": 1582, "lf": 1583, "▁drive": 1584, "roject": 1585, "▁brand": 1586, "dom": 1587, "magine": 1588, "▁link": 1589, "sation": 1590, "cast": 1591, "▁worth": 1592, "▁sleep": 1593, "gar": 1594, "simple": 1595, "report": 1596, "▁force": 1597, "pp": 1598, "▁mom": 1599, "ccount": 1600, "▁lives": 1601, "ley": 1602, "▁known": 1603, "ountry": 1604, "bsite": 1605, "▁major": 1606, "в": 1607, "▁roll": 1608, "▁jump": 1609, "mber": 1610, "▁red": 1611, "▁city": 1612, "set": 1613, "rk": 1614, "mental": 1615, "av": 1616, "▁death": 1617, "ship": 1618, "▁hands": 1619, "ug": 1620, "middle": 1621, "▁sun": 1622, "▁base": 1623, "inside": 1624, "▁road": 1625, "velop": 1626, "ight": 1627, "▁ا": 1628, "lly": 1629, "í": 1630, "▁rock": 1631, "▁compa": 1632, "▁Vi": 1633, "▁needs": 1634, "wo": 1635, "▁por": 1636, "▁dream": 1637, "ack": 1638, "▁works": 1639, "▁With": 1640, "▁Where": 1641, "▁Jo": 1642, "▁begin": 1643, "ential": 1644, "▁rule": 1645, "▁compe": 1646, "▁Look": 1647, "▁Br": 1648, "▁cost": 1649, "▁board": 1650, "▁goal": 1651, "▁Ta": 1652, "ker": 1653, "ssage": 1654, "tunity": 1655, "▁taken": 1656, "▁box": 1657, "ative": 1658, "▁match": 1659, "if": 1660, "lcome": 1661, "▁sin": 1662, "amp": 1663, "▁State": 1664, "▁extra": 1665, "▁draw": 1666, "nch": 1667, "fu": 1668, "scribe": 1669, "▁proce": 1670, "▁clean": 1671, "sident": 1672, "▁lose": 1673, "▁card": 1674, "tially": 1675, "ق": 1676, "breath": 1677, "▁Ne": 1678, "▁Har": 1679, "▁tried": 1680, "wy": 1681, "▁decid": 1682, "▁color": 1683, "▁upon": 1684, "▁mar": 1685, "wood": 1686, "▁bill": 1687, "▁vers": 1688, "bl": 1689, "▁table": 1690, "▁dad": 1691, "ality": 1692, "du": 1693, "▁price": 1694, "qua": 1695, "▁qual": 1696, "series": 1697, "▁pain": 1698, "impact": 1699, "▁opera": 1700, "fer": 1701, "▁broth": 1702, "▁sitt": 1703, "▁nu": 1704, "▁enter": 1705, "▁stick": 1706, "▁act": 1707, "bor": 1708, "▁conf": 1709, "▁Car": 1710, "ium": 1711, "dic": 1712, "anyone": 1713, "▁Bu": 1714, "▁terri": 1715, "▁treat": 1716, "common": 1717, "▁Did": 1718, "ercent": 1719, "▁wife": 1720, "▁ب": 1721, "▁spot": 1722, "ute": 1723, "▁blood": 1724, "▁polit": 1725, "▁natur": 1726, "▁atten": 1727, "raight": 1728, "tu": 1729, "т": 1730, "▁bunch": 1731, "nment": 1732, ",\"": 1733, "▁cultu": 1734, "▁truth": 1735, "inly": 1736, "▁round": 1737, "▁wall": 1738, "▁beat": 1739, "▁safe": 1740, "▁store": 1741, "onnect": 1742, "▁email": 1743, "ف": 1744, "▁den": 1745, "▁gr": 1746, "ray": 1747, "planet": 1748, "ה": 1749, "actice": 1750, "▁stage": 1751, "ledge": 1752, "ran": 1753, "▁late": 1754, "ش": 1755, "▁Du": 1756, "▁cont": 1757, "rage": 1758, "gy": 1759, "que": 1760, "pping": 1761, "ja": 1762, "her": 1763, "ham": 1764, "▁wear": 1765, "degree": 1766, "▁role": 1767, "▁gover": 1768, "▁prote": 1769, "▁pot": 1770, "orrect": 1771, "▁scene": 1772, "▁Ki": 1773, "return": 1774, "▁Mu": 1775, "▁plant": 1776, "len": 1777, "▁nine": 1778, "▁shoot": 1779, "▁study": 1780, "nymore": 1781, "▁band": 1782, "cle": 1783, "▁son": 1784, "tually": 1785, "oc": 1786, "ink": 1787, "▁feed": 1788, "▁rate": 1789, "▁faith": 1790, "▁cell": 1791, "ec": 1792, "▁earth": 1793, "volved": 1794, "ory": 1795, "▁pri": 1796, "ral": 1797, "▁wa": 1798, "period": 1799, "▁paper": 1800, "▁hole": 1801, "office": 1802, "▁audi": 1803, "▁His": 1804, "urpose": 1805, "▁age": 1806, "▁earli": 1807, "▁wish": 1808, "▁limit": 1809, "eg": 1810, "▁Of": 1811, "normal": 1812, "▁conne": 1813, "cious": 1814, "dustry": 1815, "▁page": 1816, "panies": 1817, "zz": 1818, "▁dude": 1819, "▁fair": 1820, "center": 1821, "back": 1822, "▁non": 1823, "fa": 1824, "istic": 1825, "engine": 1826, "▁local": 1827, "became": 1828, "cannot": 1829, "direct": 1830, "over": 1831, "▁tree": 1832, "▁mix": 1833, "van": 1834, "▁yo": 1835, "▁model": 1836, "wise": 1837, "ex": 1838, "▁quart": 1839, "room": 1840, "access": 1841, "▁aren": 1842, "▁Your": 1843, "ile": 1844, "м": 1845, "▁cy": 1846, "▁slow": 1847, "ective": 1848, "tance": 1849, "▁ident": 1850, "low": 1851, "▁Engl": 1852, "▁li": 1853, "▁feet": 1854, "the": 1855, "▁encou": 1856, "▁Sha": 1857, "forget": 1858, "my": 1859, "ko": 1860, "▁pray": 1861, "▁burn": 1862, "ina": 1863, "▁Ga": 1864, "couldn": 1865, "ek": 1866, "▁drop": 1867, "▁Even": 1868, "▁War": 1869, "ef": 1870, "▁path": 1871, "▁hang": 1872, "▁Cha": 1873, "ay": 1874, "▁quote": 1875, "▁hell": 1876, "stress": 1877, "▁Th": 1878, "crease": 1879, "rn": 1880, "rticle": 1881, "bottom": 1882, "effect": 1883, "▁Hu": 1884, "▁marri": 1885, "▁ext": 1886, "▁hate": 1887, "ier": 1888, "▁alone": 1889, "▁mine": 1890, "ested": 1891, "▁Good": 1892, "alize": 1893, "▁Pe": 1894, "▁US": 1895, "▁catch": 1896, "sudden": 1897, "choice": 1898, "tar": 1899, "▁X": 1900, "▁explo": 1901, "▁built": 1902, "attack": 1903, "▁risk": 1904, "▁cross": 1905, "ک": 1906, "ju": 1907, "lution": 1908, "▁eye": 1909, "▁gun": 1910, "ash": 1911, "▁Si": 1912, "everal": 1913, "▁pen": 1914, "▁wanna": 1915, "lor": 1916, "U": 1917, "beginn": 1918, "▁grand": 1919, "▁phys": 1920, "▁photo": 1921, "mit": 1922, "ox": 1923, "▁thro": 1924, "ather": 1925, "▁educa": 1926, "tally": 1927, "▁sport": 1928, "д": 1929, "▁El": 1930, "▁avail": 1931, "Christ": 1932, "▁king": 1933, "ó": 1934, "idual": 1935, "▁refer": 1936, "▁near": 1937, "struct": 1938, "▁block": 1939, "eth": 1940, "▁size": 1941, "ado": 1942, "▁tu": 1943, "▁blue": 1944, "ians": 1945, "▁hair": 1946, "▁Wow": 1947, "wouldn": 1948, "turned": 1949, "ants": 1950, "▁books": 1951, "л": 1952, "kan": 1953, "▁envir": 1954, "terial": 1955, "▁loved": 1956, "▁York": 1957, "▁town": 1958, "▁fix": 1959, "▁skill": 1960, "ctions": 1961, "▁party": 1962, "▁Faceb": 1963, "▁indiv": 1964, "▁tend": 1965, "tunate": 1966, "tual": 1967, "▁visit": 1968, "א": 1969, "▁hurt": 1970, "rently": 1971, "▁plat": 1972, "ana": 1973, "▁Gu": 1974, "▁Uh": 1975, "ontent": 1976, "▁speed": 1977, "weight": 1978, "erhaps": 1979, "ollege": 1980, "ung": 1981, "ky": 1982, "▁argu": 1983, "bigger": 1984, "▁sea": 1985, "cor": 1986, "gular": 1987, "▁aware": 1988, "ib": 1989, "merica": 1990, "online": 1991, "▁profe": 1992, "▁Wi": 1993, "atch": 1994, "▁race": 1995, "▁host": 1996, "lation": 1997, "▁Ri": 1998, "option": 1999, "hannel": 2000, "dible": 2001, "verage": 2002, "cra": 2003, "▁oppos": 2004, "▁wrote": 2005, "round": 2006, "sarily": 2007, "▁save": 2008, "▁text": 2009, "▁furth": 2010, "ease": 2011, "ة": 2012, "▁cat": 2013, "onment": 2014, "ified": 2015, "▁Ex": 2016, "▁ship": 2017, "accept": 2018, "▁mis": 2019, "atient": 2020, "▁ele": 2021, "▁By": 2022, "uff": 2023, "nybody": 2024, "▁activ": 2025, "work": 2026, "Tube": 2027, "off": 2028, "▁bra": 2029, "▁gotta": 2030, "▁essen": 2031, "▁organ": 2032, "author": 2033, "essure": 2034, "▁devel": 2035, "▁gas": 2036, "review": 2037, "hood": 2038, "ganiza": 2039, "▁kick": 2040, "nter": 2041, "▁radio": 2042, "▁heat": 2043, "▁fund": 2044, "▁discu": 2045, "ج": 2046, "nefit": 2047, "▁fra": 2048, "mic": 2049, "cro": 2050, "▁mass": 2051, "▁image": 2052, "za": 2053, "simply": 2054, "▁Which": 2055, "▁struc": 2056, "affect": 2057, "vel": 2058, "▁laugh": 2059, "achine": 2060, "▁tax": 2061, "charge": 2062, "▁slash": 2063, "▁bank": 2064, "ban": 2065, "▁See": 2066, "nic": 2067, "ל": 2068, "▁cold": 2069, "cul": 2070, "▁apart": 2071, "▁mess": 2072, "▁Paul": 2073, "People": 2074, "▁scien": 2075, "ties": 2076, "come": 2077, "screen": 2078, "у": 2079, "▁mid": 2080, "iginal": 2081, "ath": 2082, "kin": 2083, "▁langu": 2084, "▁Fa": 2085, "▁Su": 2086, "▁shall": 2087, "▁comm": 2088, "includ": 2089, "longer": 2090, "ontinu": 2091, "▁Col": 2092, "α": 2093, "▁term": 2094, "ez": 2095, "▁hat": 2096, "▁kept": 2097, "detail": 2098, "ommend": 2099, "ficial": 2100, "lon": 2101, "ew": 2102, "▁topic": 2103, "▁shar": 2104, "use": 2105, "▁Ru": 2106, "▁TV": 2107, "▁persp": 2108, "sha": 2109, "▁zero": 2110, "▁trip": 2111, "à": 2112, "ik": 2113, "▁press": 2114, "dig": 2115, "▁green": 2116, "choose": 2117, "etwork": 2118, "▁Star": 2119, "believ": 2120, "remain": 2121, "urface": 2122, "▁fill": 2123, "▁verse": 2124, "▁pop": 2125, "act": 2126, "▁condi": 2127, "United": 2128, "▁bri": 2129, "▁fish": 2130, "▁Com": 2131, "▁San": 2132, "ect": 2133, "▁sett": 2134, "أ": 2135, "bly": 2136, "lease": 2137, "▁soul": 2138, "▁addi": 2139, "▁opin": 2140, "fense": 2141, "▁featu": 2142, "iment": 2143, "for": 2144, "▁wide": 2145, "tian": 2146, "ith": 2147, "▁above": 2148, "ue": 2149, "ा": 2150, "remind": 2151, "▁Get": 2152, "camera": 2153, "street": 2154, "▁partn": 2155, "▁appr": 2156, "▁sex": 2157, "alized": 2158, "▁worry": 2159, "ible": 2160, "ership": 2161, "▁wh": 2162, "tantly": 2163, "▁wild": 2164, "iverse": 2165, "place": 2166, "▁lower": 2167, "▁inten": 2168, "▁deliv": 2169, "▁moved": 2170, "▁är": 2171, "▁separ": 2172, "bra": 2173, "▁Bar": 2174, "Q": 2175, "▁blow": 2176, "▁tough": 2177, "▁date": 2178, "stream": 2179, "▁fly": 2180, "ome": 2181, "ately": 2182, "comput": 2183, "▁bed": 2184, "career": 2185, "▁stra": 2186, "press": 2187, "▁Pr": 2188, "je": 2189, "▁sat": 2190, "mar": 2191, "pound": 2192, "ssful": 2193, "K": 2194, "umb": 2195, "▁tip": 2196, "▁ended": 2197, "▁gift": 2198, "fr": 2199, "ively": 2200, "▁immed": 2201, "sight": 2202, "tmas": 2203, "izing": 2204, "▁dan": 2205, "▁wind": 2206, "▁par": 2207, "cept": 2208, "stant": 2209, "mmer": 2210, "▁wow": 2211, "launch": 2212, "▁folks": 2213, "▁wave": 2214, "log": 2215, "▁leg": 2216, "▁carry": 2217, "easier": 2218, "evious": 2219, "tage": 2220, "rength": 2221, "fl": 2222, "credit": 2223, "▁total": 2224, "▁pack": 2225, "summer": 2226, "▁En": 2227, "▁Come": 2228, "lip": 2229, "▁minus": 2230, "▁sy": 2231, "▁micro": 2232, "eciate": 2233, "▁After": 2234, "▁anti": 2235, "▁weren": 2236, "lk": 2237, "rsity": 2238, "▁First": 2239, "▁King": 2240, "pper": 2241, "▁mark": 2242, "▁birth": 2243, "р": 2244, "▁Jack": 2245, "▁club": 2246, "switch": 2247, "▁code": 2248, "▁Ge": 2249, "af": 2250, "lay": 2251, "plain": 2252, "itch": 2253, "▁bro": 2254, "gotten": 2255, "plete": 2256, "itself": 2257, "player": 2258, "letter": 2259, "▁shift": 2260, "▁celeb": 2261, "▁Have": 2262, "▁David": 2263, "tastic": 2264, "ddi": 2265, "doctor": 2266, "cently": 2267, "▁bless": 2268, "usband": 2269, "lement": 2270, "▁rid": 2271, "▁effec": 2272, "▁compl": 2273, "▁guest": 2274, "▁Joe": 2275, "▁Our": 2276, "craft": 2277, "down": 2278, "▁cook": 2279, "nature": 2280, "regard": 2281, "▁loca": 2282, "omfort": 2283, "▁score": 2284, "ekend": 2285, "▁paid": 2286, "ix": 2287, "▁Gra": 2288, "▁horse": 2289, "▁stat": 2290, "ternal": 2291, "fresh": 2292, "▁trade": 2293, "▁colle": 2294, "higher": 2295, "▁spiri": 2296, "▁sad": 2297, "▁medic": 2298, "▁sales": 2299, "▁till": 2300, "daught": 2301, "league": 2302, "meters": 2303, "zi": 2304, "pu": 2305, "uc": 2306, "ان": 2307, "▁Insta": 2308, "air": 2309, "▁smart": 2310, "ame": 2311, "▁floor": 2312, "▁Twitt": 2313, "▁unc": 2314, "rated": 2315, "▁driv": 2316, "▁peace": 2317, "ino": 2318, "▁dia": 2319, "▁Ch": 2320, "tribut": 2321, "▁Ni": 2322, "▁Ke": 2323, "▁tour": 2324, "uch": 2325, "cted": 2326, "▁flu": 2327, "Europe": 2328, "erious": 2329, "window": 2330, "secret": 2331, "althy": 2332, "double": 2333, "▁print": 2334, "▁album": 2335, "stood": 2336, "▁spent": 2337, "Anyway": 2338, "rouble": 2339, "▁born": 2340, "▁Absol": 2341, "unk": 2342, "▁chapt": 2343, "ku": 2344, "▁min": 2345, "rity": 2346, "provid": 2347, "▁measu": 2348, "rant": 2349, "versus": 2350, "police": 2351, "factor": 2352, "▁vote": 2353, "bin": 2354, "how": 2355, "lright": 2356, "hor": 2357, "ov": 2358, "effort": 2359, "▁Earth": 2360, "▁older": 2361, "▁så": 2362, "▁South": 2363, "▁lie": 2364, "roduct": 2365, "خ": 2366, "rovide": 2367, "▁Tom": 2368, "▁Pre": 2369, "ddress": 2370, "tune": 2371, "object": 2372, "▁notes": 2373, "▁shut": 2374, "spread": 2375, "▁Mon": 2376, "master": 2377, "▁began": 2378, "▁mae": 2379, "▁court": 2380, "target": 2381, "morrow": 2382, "▁fat": 2383, "▁shape": 2384, "▁lay": 2385, "derful": 2386, "▁tempe": 2387, "▁plann": 2388, "▁Lu": 2389, "▁truly": 2390, "▁poor": 2391, "▁oil": 2392, "terday": 2393, "dding": 2394, "roduce": 2395, "notice": 2396, "ump": 2397, "▁style": 2398, "▁Am": 2399, "ancial": 2400, "▁sweet": 2401, "ש": 2402, "▁stopp": 2403, "spond": 2404, "gon": 2405, "mate": 2406, "▁ran": 2407, "▁Fin": 2408, "cha": 2409, "gue": 2410, "▁pour": 2411, "▁Austr": 2412, "refore": 2413, "▁mouth": 2414, "▁disa": 2415, "▁Pro": 2416, "▁pan": 2417, "▁fell": 2418, "ique": 2419, "lie": 2420, "spirit": 2421, "▁Those": 2422, "ock": 2423, "ughout": 2424, "advice": 2425, "bought": 2426, "sister": 2427, "yard": 2428, "▁click": 2429, "▁milli": 2430, "▁bag": 2431, "board": 2432, "▁glad": 2433, "े": 2434, "▁expen": 2435, "▁typic": 2436, "beyond": 2437, "clude": 2438, "▁tele": 2439, "corner": 2440, "▁stock": 2441, "▁goals": 2442, "?\"": 2443, "ontact": 2444, "▁onto": 2445, "nobody": 2446, "▁ultim": 2447, "▁skin": 2448, "▁unit": 2449, "▁signi": 2450, "ö": 2451, "▁gw": 2452, "rick": 2453, "lam": 2454, "nge": 2455, "idence": 2456, "▁site": 2457, "operty": 2458, "losing": 2459, "finger": 2460, "▁due": 2461, "▁Yep": 2462, "▁tradi": 2463, "oblems": 2464, "▁died": 2465, "▁note": 2466, "ç": 2467, "Google": 2468, "▁root": 2469, "cycl": 2470, "▁Again": 2471, "▁moon": 2472, "actual": 2473, "▁joy": 2474, "icated": 2475, "▁spin": 2476, "▁Also": 2477, "ز": 2478, "ponent": 2479, "cience": 2480, "az": 2481, "ev": 2482, "ternet": 2483, "▁digit": 2484, "meter": 2485, "▁title": 2486, "hold": 2487, "▁perfo": 2488, "▁COVID": 2489, "iately": 2490, "sponse": 2491, "ר": 2492, "bur": 2493, "battle": 2494, "proper": 2495, "unique": 2496, "rie": 2497, "▁Va": 2498, "▁park": 2499, "▁evid": 2500, "udents": 2501, "caught": 2502, "▁Exact": 2503, "ney": 2504, "▁Mae": 2505, "lap": 2506, "▁auto": 2507, "▁Bible": 2508, "▁Tra": 2509, "_": 2510, "▁Trump": 2511, "gri": 2512, "rmance": 2513, "▁secur": 2514, "ong": 2515, "▁expre": 2516, "▁joke": 2517, "▁World": 2518, "▁May": 2519, "ciety": 2520, "▁paint": 2521, "ão": 2522, "▁warm": 2523, "ission": 2524, "specif": 2525, "tz": 2526, "ich": 2527, "▁Dan": 2528, "▁stuck": 2529, "growth": 2530, "neighb": 2531, "▁lived": 2532, "clock": 2533, "▁James": 2534, "observ": 2535, "cri": 2536, "termin": 2537, "nu": 2538, "titude": 2539, "lum": 2540, "н": 2541, "▁dr": 2542, "▁appar": 2543, "▁sick": 2544, "vin": 2545, "sional": 2546, "matic": 2547, "win": 2548, "prise": 2549, "▁range": 2550, "▁popul": 2551, "suffer": 2552, "▁Pi": 2553, "▁farm": 2554, "ari": 2555, "▁vari": 2556, "employ": 2557, "▁Mc": 2558, "ica": 2559, "consum": 2560, "▁volt": 2561, "fla": 2562, "▁viol": 2563, "▁Her": 2564, "rge": 2565, "rating": 2566, "▁och": 2567, "מ": 2568, "▁glass": 2569, "nie": 2570, "▁Sam": 2571, "▁heavy": 2572, "nny": 2573, "▁rain": 2574, "▁Ti": 2575, "ssible": 2576, "▁jag": 2577, "ably": 2578, "easily": 2579, "▁edge": 2580, "German": 2581, "▁bear": 2582, "▁loss": 2583, "ceive": 2584, "ficant": 2585, "nesses": 2586, "▁trick": 2587, "▁drug": 2588, "▁worse": 2589, "▁magic": 2590, "tant": 2591, "active": 2592, "play": 2593, "ada": 2594, "grade": 2595, "ane": 2596, "square": 2597, "▁Bill": 2598, "▁Sc": 2599, "▁adult": 2600, "▁camp": 2601, "▁heal": 2602, "▁ski": 2603, "▁ride": 2604, "▁worst": 2605, "▁below": 2606, "▁doubt": 2607, "Qu": 2608, "sses": 2609, "▁scale": 2610, "▁tight": 2611, "▁exc": 2612, "▁dive": 2613, "▁massi": 2614, "cover": 2615, "▁notic": 2616, "ב": 2617, "ichael": 2618, "cument": 2619, "▁gain": 2620, "acy": 2621, "lished": 2622, "▁Wal": 2623, "▁prior": 2624, "pen": 2625, "centr": 2626, "afraid": 2627, "accord": 2628, "trange": 2629, "▁Ben": 2630, "▁impor": 2631, "▁frame": 2632, "dri": 2633, "▁Black": 2634, "lig": 2635, "desire": 2636, "Friday": 2637, "rature": 2638, "▁dance": 2639, "▁grew": 2640, "ε": 2641, "▁resis": 2642, "handle": 2643, "▁Cor": 2644, "ת": 2645, "opment": 2646, "▁på": 2647, "▁North": 2648, "J": 2649, "physic": 2650, "munica": 2651, "plane": 2652, "strict": 2653, "ttle": 2654, "▁rich": 2655, "rtable": 2656, "ppoint": 2657, "Sunday": 2658, "▁pract": 2659, "▁pin": 2660, "year": 2661, "▁wrap": 2662, "▁habit": 2663, "unless": 2664, "▁sold": 2665, "я": 2666, "ο": 2667, "▁lift": 2668, "▁West": 2669, "leader": 2670, "▁blah": 2671, "overed": 2672, "▁tie": 2673, "τ": 2674, "▁broke": 2675, "alia": 2676, "rotect": 2677, "क": 2678, "ension": 2679, "▁suck": 2680, "ι": 2681, "length": 2682, "▁flat": 2683, "talent": 2684, "rivate": 2685, "car": 2686, "▁grab": 2687, "▁integ": 2688, "▁cloth": 2689, "lit": 2690, "▁broad": 2691, "▁From": 2692, "то": 2693, "▁confe": 2694, "region": 2695, "romise": 2696, "ہ": 2697, "famous": 2698, "sphere": 2699, "▁dropp": 2700, "▁seat": 2701, "▁eu": 2702, "▁apply": 2703, "▁daily": 2704, "decide": 2705, "oedd": 2706, "coffee": 2707, "untain": 2708, "▁Ko": 2709, "▁Mark": 2710, "havior": 2711, "ando": 2712, "▁relig": 2713, "▁City": 2714, "▁dress": 2715, "▁among": 2716, "▁lack": 2717, "heaven": 2718, "▁comfo": 2719, "ologic": 2720, "▁Mor": 2721, "▁Mike": 2722, "▁hynny": 2723, "▁mad": 2724, "▁owner": 2725, "igh": 2726, "▁motiv": 2727, "ubject": 2728, "▁figur": 2729, "▁requi": 2730, "▁norm": 2731, "east": 2732, "▁var": 2733, "▁Great": 2734, "of": 2735, "▁East": 2736, "▁guide": 2737, "▁unfor": 2738, "hospit": 2739, "circle": 2740, "mark": 2741, "▁file": 2742, "attern": 2743, "▁Any": 2744, "broken": 2745, "rio": 2746, "spring": 2747, "arch": 2748, "▁wheel": 2749, "▁wire": 2750, "▁named": 2751, "▁pitch": 2752, "är": 2753, "▁Min": 2754, "▁Cause": 2755, "▁Sure": 2756, "iption": 2757, "remely": 2758, "▁taste": 2759, "▁spoke": 2760, "▁prop": 2761, "origin": 2762, "lia": 2763, "▁advan": 2764, "▁fail": 2765, "▁cup": 2766, "leased": 2767, "ulous": 2768, "▁sand": 2769, "formed": 2770, "▁avoid": 2771, "▁Will": 2772, "signed": 2773, "▁cash": 2774, "stitu": 2775, "right": 2776, "▁held": 2777, "▁leav": 2778, "lesson": 2779, "ommand": 2780, "▁damn": 2781, "▁Bro": 2782, "gress": 2783, "▁metal": 2784, "bright": 2785, "▁gold": 2786, "▁hum": 2787, "▁batte": 2788, "script": 2789, "▁tiny": 2790, "▁Does": 2791, "▁Apple": 2792, "die": 2793, "▁flip": 2794, "app": 2795, "profit": 2796, "▁Chi": 2797, "▁Peter": 2798, "modern": 2799, "▁egg": 2800, "▁wine": 2801, "▁initi": 2802, "ndemic": 2803, "र": 2804, "▁none": 2805, "econom": 2806, "▁Take": 2807, "ctive": 2808, "nimals": 2809, "ruggle": 2810, "combin": 2811, "nected": 2812, "▁defen": 2813, "▁knock": 2814, "▁Holy": 2815, "▁mode": 2816, "▁promo": 2817, "damage": 2818, "▁execu": 2819, "animal": 2820, "ose": 2821, "▁engag": 2822, "▁boat": 2823, "▁capit": 2824, "▁solid": 2825, "wr": 2826, "gra": 2827, "former": 2828, "word": 2829, "field": 2830, "ص": 2831, "▁manu": 2832, "п": 2833, "oncern": 2834, "▁China": 2835, "▁Once": 2836, "elle": 2837, "receiv": 2838, "▁impro": 2839, "к": 2840, "fri": 2841, "▁milit": 2842, "▁sum": 2843, "ط": 2844, "ال": 2845, "▁influ": 2846, "نا": 2847, "device": 2848, "▁alive": 2849, "venue": 2850, "▁frequ": 2851, "▁holi": 2852, "uk": 2853, "▁weak": 2854, "▁pet": 2855, "demand": 2856, "▁busy": 2857, "belief": 2858, "murder": 2859, "▁suit": 2860, "well": 2861, "▁Ken": 2862, "▁worri": 2863, "▁Very": 2864, "give": 2865, "▁sky": 2866, "ppy": 2867, "creas": 2868, "law": 2869, "troduc": 2870, "▁hunt": 2871, "▁descr": 2872, "än": 2873, "ette": 2874, "reneur": 2875, "▁Charl": 2876, "opular": 2877, "urance": 2878, "miliar": 2879, "repeat": 2880, "Please": 2881, "ese": 2882, "▁seri": 2883, "ection": 2884, "ase": 2885, "quest": 2886, "▁added": 2887, "▁quiet": 2888, "alance": 2889, "X": 2890, "iff": 2891, "ush": 2892, "shirt": 2893, "ession": 2894, "▁rough": 2895, "variou": 2896, "method": 2897, "▁Love": 2898, "female": 2899, "▁gosh": 2900, "hedule": 2901, "▁kilo": 2902, "aurant": 2903, "istent": 2904, "ercise": 2905, "า": 2906, "stupid": 2907, "▁shock": 2908, "▁Big": 2909, "decade": 2910, "▁rise": 2911, "▁pleas": 2912, "б": 2913, "▁core": 2914, "▁motor": 2915, "▁Satur": 2916, "▁horri": 2917, "▁func": 2918, "▁squar": 2919, "▁estab": 2920, "▁dry": 2921, "▁fasci": 2922, "▁Super": 2923, "▁angle": 2924, "associ": 2925, "sexual": 2926, "▁Per": 2927, "bri": 2928, "▁raise": 2929, "▁fruit": 2930, "▁layer": 2931, "▁impo": 2932, "▁Cali": 2933, "▁contr": 2934, "▁earn": 2935, "rategy": 2936, "entrep": 2937, "▁Day": 2938, "▁smell": 2939, "Israel": 2940, "▁psych": 2941, "▁regul": 2942, "▁expos": 2943, "book": 2944, "▁poten": 2945, "truggl": 2946, "ч": 2947, "▁wake": 2948, "oducts": 2949, "pho": 2950, "▁famil": 2951, "з": 2952, "▁chem": 2953, "Y": 2954, "phone": 2955, "mechan": 2956, "chi": 2957, "commun": 2958, "ceived": 2959, "ν": 2960, "vestig": 2961, "verse": 2962, "aries": 2963, "▁Miss": 2964, "sponsi": 2965, "eign": 2966, "▁plug": 2967, "▁plate": 2968, "closer": 2969, "omplex": 2970, "▁honor": 2971, "tific": 2972, "▁cloud": 2973, "Number": 2974, "wel": 2975, "ydd": 2976, "ы": 2977, "▁scar": 2978, "▁odd": 2979, "mula": 2980, "power": 2981, "▁carri": 2982, "fault": 2983, "▁Matt": 2984, "▁lady": 2985, "rupt": 2986, "nating": 2987, "▁shout": 2988, "tudent": 2989, "▁crowd": 2990, "▁Most": 2991, "Monday": 2992, "Spirit": 2993, "▁Hello": 2994, "▁Two": 2995, "▁vol": 2996, "urious": 2997, "ria": 2998, "▁tea": 2999, "prised": 3000, "tively": 3001, "random": 3002, "▁Mary": 3003, "chieve": 3004, "fornia": 3005, "▁cheap": 3006, "▁trail": 3007, "string": 3008, "seemed": 3009, "▁staff": 3010, "motion": 3011, "ما": 3012, "ttempt": 3013, "stern": 3014, "▁giant": 3015, "alist": 3016, "lated": 3017, "▁Cu": 3018, "▁Bri": 3019, "uppose": 3020, "น": 3021, "▁Japan": 3022, "oncept": 3023, "flight": 3024, "cting": 3025, "▁guard": 3026, "▁emerg": 3027, "house": 3028, "▁Rob": 3029, "▁spa": 3030, "imagin": 3031, "ontext": 3032, "ji": 3033, "▁vill": 3034, "▁freak": 3035, "▁winn": 3036, "recent": 3037, "lish": 3038, "อ": 3039, "improv": 3040, "â": 3041, "lac": 3042, "spite": 3043, "▁snow": 3044, "▁Today": 3045, "memory": 3046, "▁loud": 3047, "dinner": 3048, "Listen": 3049, "pha": 3050, "▁vehic": 3051, "neath": 3052, "phi": 3053, "expand": 3054, "critic": 3055, "nnounc": 3056, "▁Ste": 3057, "lastic": 3058, "ware": 3059, "▁Mil": 3060, "▁assum": 3061, "▁screw": 3062, "taught": 3063, "scope": 3064, "tists": 3065, "estate": 3066, "▁alter": 3067, "bol": 3068, "▁proud": 3069, "▁chain": 3070, "prison": 3071, "▁retir": 3072, "▁crit": 3073, "except": 3074, "▁fuel": 3075, "▁era": 3076, "raised": 3077, "▁unive": 3078, "lliant": 3079, "وا": 3080, "ndo": 3081, "נ": 3082, "▁tear": 3083, "tuniti": 3084, "ronic": 3085, "supply": 3086, "illa": 3087, "▁adver": 3088, "ymlaen": 3089, "head": 3090, "tretch": 3091, "safety": 3092, "▁Give": 3093, "dibly": 3094, "▁copy": 3095, "fourth": 3096, "ensive": 3097, "ognize": 3098, "mpaign": 3099, "▁judge": 3100, "▁Make": 3101, "like": 3102, "▁trial": 3103, "▁firm": 3104, "▁för": 3105, "▁math": 3106, "▁medit": 3107, "revent": 3108, "▁tank": 3109, "hicken": 3110, "artist": 3111, "tellig": 3112, "▁bone": 3113, "applic": 3114, "commit": 3115, "▁happi": 3116, "bottle": 3117, "▁House": 3118, "▁virtu": 3119, "▁seek": 3120, "▁zone": 3121, "mitted": 3122, "▁Steve": 3123, "ör": 3124, "larger": 3125, "▁mynd": 3126, "ے": 3127, "▁evil": 3128, "▁Ze": 3129, "istake": 3130, "ê": 3131, "vy": 3132, "—": 3133, "▁While": 3134, "stall": 3135, "reveal": 3136, "timate": 3137, "▁grace": 3138, "▁crack": 3139, "▁Tu": 3140, "▁dda": 3141, "weapon": 3142, "▁equa": 3143, "▁male": 3144, "▁agent": 3145, "prayer": 3146, "quence": 3147, "▁tired": 3148, "▁relax": 3149, "ponsor": 3150, "George": 3151, "covery": 3152, "▁Tell": 3153, "▁Men": 3154, "burg": 3155, "▁smile": 3156, "▁Hall": 3157, "▁drama": 3158, "▁twice": 3159, "▁basis": 3160, "لا": 3161, "phe": 3162, "▁shoe": 3163, "▁trigg": 3164, "studio": 3165, "▁في": 3166, "update": 3167, "▁Time": 3168, "cc": 3169, "▁pair": 3170, "ifica": 3171, "conven": 3172, "▁legal": 3173, "instru": 3174, "biliti": 3175, "oli": 3176, "ticket": 3177, "▁draft": 3178, "Really": 3179, "▁crime": 3180, "!\"": 3181, "▁calm": 3182, "zo": 3183, "▁react": 3184, "▁edit": 3185, "▁audio": 3186, "▁legi": 3187, "▁Gar": 3188, "adjust": 3189, "▁truck": 3190, "French": 3191, "ville": 3192, "▁orbit": 3193, "Amazon": 3194, "▁Han": 3195, "visual": 3196, "▁Alex": 3197, "flect": 3198, "ddy": 3199, "▁UK": 3200, "▁task": 3201, "afford": 3202, "▁gear": 3203, "slowly": 3204, "basket": 3205, "mwneud": 3206, "▁iron": 3207, "è": 3208, "▁thick": 3209, "teen": 3210, "▁syn": 3211, "▁pump": 3212, "▁Sorry": 3213, "▁purch": 3214, "bby": 3215, "▁lucky": 3216, "▁Rich": 3217, "▁net": 3218, "▁Next": 3219, "London": 3220, "carbon": 3221, "▁meat": 3222, "point": 3223, "▁sir": 3224, "bodies": 3225, "muscle": 3226, "etic": 3227, "▁mask": 3228, "lusion": 3229, "▁caus": 3230, "▁equip": 3231, "eating": 3232, "▁Bob": 3233, "▁effic": 3234, "ار": 3235, "▁chair": 3236, "▁bath": 3237, "minist": 3238, "histor": 3239, "▁frust": 3240, "global": 3241, "signal": 3242, "▁judg": 3243, ":": 3244, "orship": 3245, "▁Would": 3246, "ם": 3247, "▁Ah": 3248, "▁blog": 3249, "▁river": 3250, "▁prepa": 3251, "ü": 3252, "entral": 3253, "्": 3254, "filled": 3255, "native": 3256, "depart": 3257, "hoping": 3258, "ritish": 3259, "▁India": 3260, "▁ocean": 3261, "▁luck": 3262, "▁sugar": 3263, "gather": 3264, "▁quant": 3265, "▁rare": 3266, "vous": 3267, "vid": 3268, "faster": 3269, "mail": 3270, "▁gradu": 3271, "manage": 3272, "▁map": 3273, "nxiety": 3274, "volve": 3275, "न": 3276, "nearly": 3277, "ercial": 3278, "blo": 3279, "dio": 3280, "▁Adam": 3281, "cancer": 3282, "▁survi": 3283, "ambi": 3284, "bridge": 3285, "killed": 3286, "▁Che": 3287, "▁noise": 3288, "▁Unive": 3289, "▁north": 3290, "▁vent": 3291, "ون": 3292, "่": 3293, "▁Texas": 3294, "▁commu": 3295, "ienc": 3296, "garden": 3297, "Father": 3298, "sembl": 3299, "▁invit": 3300, "hand": 3301, "▁AI": 3302, "asi": 3303, "▁Roman": 3304, "▁grate": 3305, "prepar": 3306, "▁hook": 3307, "на": 3308, "▁Obvi": 3309, "eithio": 3310, "limate": 3311, "ublish": 3312, "▁charg": 3313, "▁Wait": 3314, "cia": 3315, "▁Scott": 3316, "quired": 3317, "pared": 3318, "ford": 3319, "excuse": 3320, "▁south": 3321, "▁rush": 3322, "entury": 3323, "▁occur": 3324, "idered": 3325, "▁tech": 3326, "ellent": 3327, "ú": 3328, "▁minim": 3329, "ร": 3330, "lcohol": 3331, "▁Dar": 3332, "policy": 3333, "strike": 3334, "vince": 3335, "style": 3336, "wan": 3337, "ustain": 3338, "ftware": 3339, "winter": 3340, "▁label": 3341, "rack": 3342, "▁hotel": 3343, "Russia": 3344, "Before": 3345, "▁dear": 3346, "Willia": 3347, "lorida": 3348, "circum": 3349, "▁divid": 3350, "▁Ya": 3351, "▁categ": 3352, "▁ridic": 3353, "år": 3354, "ella": 3355, "danger": 3356, "▁salt": 3357, "▁pure": 3358, "logist": 3359, "ات": 3360, "▁rap": 3361, "▁tap": 3362, "button": 3363, "▁Tim": 3364, "▁bomb": 3365, "▁Rock": 3366, "▁upset": 3367, "escape": 3368, "▁Jeff": 3369, "bel": 3370, "▁lean": 3371, "▁accur": 3372, "▁adapt": 3373, "closed": 3374, "bil": 3375, "prefer": 3376, "&": 3377, "▁Other": 3378, "liquid": 3379, "budget": 3380, "▁respo": 3381, "nciple": 3382, "स": 3383, "▁Park": 3384, "noon": 3385, "stroy": 3386, "promis": 3387, "erback": 3388, "▁Janua": 3389, "assume": 3390, "▁angry": 3391, "fairly": 3392, "▁storm": 3393, "flict": 3394, "▁trend": 3395, "▁hall": 3396, "▁Actu": 3397, "▁Over": 3398, "▁queen": 3399, "▁bod": 3400, "indeed": 3401, "stinct": 3402, "plenty": 3403, "▁failu": 3404, "illion": 3405, "tended": 3406, "▁bond": 3407, "▁bitch": 3408, "▁phase": 3409, "▁scary": 3410, "ía": 3411, "▁chip": 3412, "box": 3413, "threat": 3414, "▁shame": 3415, "▁climb": 3416, "ь": 3417, "▁Yo": 3418, "▁admit": 3419, "volume": 3420, "▁Think": 3421, "▁saved": 3422, "ogress": 3423, "▁Radio": 3424, "cerned": 3425, "uggest": 3426, "ذ": 3427, "hmm": 3428, "▁flash": 3429, "▁dar": 3430, "mocrat": 3431, "▁loan": 3432, "▁flag": 3433, "▁grav": 3434, "▁bread": 3435, "▁White": 3436, "remove": 3437, "▁debt": 3438, "▁Wash": 3439, "▁align": 3440, "trauma": 3441, "serva": 3442, "cident": 3443, "ע": 3444, "▁refle": 3445, "ddle": 3446, "icipat": 3447, "▁hur": 3448, "ד": 3449, "▁Frank": 3450, "▁brief": 3451, "▁gym": 3452, "▁occas": 3453, "▁split": 3454, "▁Sun": 3455, "▁crew": 3456, "vestor": 3457, "▁mount": 3458, "▁Tri": 3459, "saving": 3460, "▁suppl": 3461, "fectly": 3462, "▁boss": 3463, "BC": 3464, "▁Bur": 3465, "driver": 3466, "▁Shi": 3467, "Canada": 3468, "й": 3469, "▁bike": 3470, "Disney": 3471, "spira": 3472, "▁knee": 3473, "▁neck": 3474, "pocket": 3475, "speech": 3476, "▁route": 3477, "▁facil": 3478, "istry": 3479, "belong": 3480, "surpri": 3481, "▁varie": 3482, "▁gap": 3483, "▁civil": 3484, "▁March": 3485, "▁smoke": 3486, "▁gate": 3487, "▁loop": 3488, "fellow": 3489, "▁tape": 3490, "ी": 3491, "aptain": 3492, "▁elev": 3493, "▁clip": 3494, "▁sharp": 3495, "forgot": 3496, "با": 3497, "▁cael": 3498, "wrestl": 3499, "▁optim": 3500, "▁champ": 3501, "ature": 3502, "defend": 3503, "guitar": 3504, "berg": 3505, "ppreci": 3506, "▁enemy": 3507, "ffe": 3508, "▁remov": 3509, "egment": 3510, "what": 3511, "nervou": 3512, "phrase": 3513, "fident": 3514, "ها": 3515, "▁corre": 3516, "gerous": 3517, "▁studi": 3518, "▁minor": 3519, "▁blind": 3520, "▁Talk": 3521, "▁reduc": 3522, "scared": 3523, "useful": 3524, "▁Green": 3525, "financ": 3526, "ico": 3527, "shadow": 3528, "ं": 3529, "▁Brown": 3530, "League": 3531, "mirror": 3532, "propos": 3533, "▁pool": 3534, "ρ": 3535, "Robert": 3536, "ridge": 3537, "▁fake": 3538, "но": 3539, "posit": 3540, "▁capac": 3541, "▁hide": 3542, "wisdom": 3543, "▁pursu": 3544, "whelm": 3545, "▁iawn": 3546, "▁pub": 3547, "▁steal": 3548, "war": 3549, "cribed": 3550, "▁Nick": 3551, "nsible": 3552, "▁scrip": 3553, "σ": 3554, "enario": 3555, "factur": 3556, "▁bio": 3557, "vor": 3558, "▁hip": 3559, "scream": 3560, "▁kit": 3561, "▁yw": 3562, "▁Jim": 3563, "raffic": 3564, "beauty": 3565, "AC": 3566, "▁Show": 3567, "crimin": 3568, "▁Thurs": 3569, "▁awful": 3570, "thetic": 3571, "▁inspi": 3572, "▁rank": 3573, "▁erupt": 3574, "▁prime": 3575, "deeper": 3576, "▁من": 3577, "August": 3578, "ollect": 3579, "ि": 3580, "▁gig": 3581, "smooth": 3582, "▁volca": 3583, "ains": 3584, "▁demo": 3585, "Donald": 3586, "▁Carol": 3587, "▁depth": 3588, "▁Mac": 3589, "▁Phil": 3590, "aunt": 3591, "▁bli": 3592, "Africa": 3593, "compos": 3594, "fast": 3595, "bwysig": 3596, "▁gene": 3597, "ourage": 3598, "▁simpl": 3599, "xtreme": 3600, "▁crash": 3601, "▁Keep": 3602, "▁Luc": 3603, "encies": 3604, "lican": 3605, "▁drag": 3606, "▁coast": 3607, "त": 3608, "ician": 3609, "▁lunch": 3610, "witnes": 3611, "▁sensi": 3612, "▁slide": 3613, "▁pheno": 3614, "cluded": 3615, "yellow": 3616, "stakes": 3617, "▁guar": 3618, "engage": 3619, "▁här": 3620, "כ": 3621, "▁hydro": 3622, "ो": 3623, "▁depre": 3624, "rapy": 3625, "nounce": 3626, "▁tube": 3627, "▁liber": 3628, "▁empty": 3629, "▁sacri": 3630, "▁swim": 3631, "▁Check": 3632, "flavor": 3633, "گ": 3634, "▁Qui": 3635, "lash": 3636, "income": 3637, "▁milk": 3638, "▁drill": 3639, "filter": 3640, "govern": 3641, "प": 3642, "▁rob": 3643, "▁acid": 3644, "arian": 3645, "placed": 3646, "victim": 3647, "▁Hope": 3648, "▁blame": 3649, "▁panel": 3650, "shine": 3651, "▁narra": 3652, "cheese": 3653, "▁lab": 3654, "served": 3655, "▁kiss": 3656, "lick": 3657, "cancel": 3658, "▁June": 3659, "town": 3660, "proof": 3661, "front": 3662, "لي": 3663, "ก": 3664, "▁tweet": 3665, "▁teeth": 3666, "print": 3667, "▁neutr": 3668, "▁Smith": 3669, "Daniel": 3670, "detect": 3671, "ม": 3672, "▁fash": 3673, "surviv": 3674, "▁quit": 3675, "rocket": 3676, "▁posse": 3677, "▁fool": 3678, "▁Brad": 3679, "▁grant": 3680, "writer": 3681, "▁Octob": 3682, "▁brown": 3683, "cceler": 3684, "spired": 3685, "▁ideal": 3686, "▁kitch": 3687, "▁Nice": 3688, "▁não": 3689, "hinese": 3690, "magnet": 3691, "▁Last": 3692, "▁angel": 3693, "conomy": 3694, "based": 3695, "▁NFL": 3696, "▁float": 3697, "▁Brian": 3698, "uesday": 3699, "▁false": 3700, "▁Out": 3701, "เ": 3702, "▁trad": 3703, "ض": 3704, "border": 3705, "▁danc": 3706, "▁Queen": 3707, "dinary": 3708, "▁Back": 3709, "▁delic": 3710, "onsult": 3711, "▁nutri": 3712, "cular": 3713, "tense": 3714, "▁labor": 3715, "priate": 3716, "▁Septe": 3717, "π": 3718, "▁Wedne": 3719, "▁dust": 3720, "▁adven": 3721, "▁gut": 3722, "enging": 3723, "extend": 3724, "▁April": 3725, "▁glory": 3726, "的": 3727, "▁shake": 3728, "ين": 3729, "utomat": 3730, "crisis": 3731, "▁Op": 3732, "▁innov": 3733, "insane": 3734, "oxygen": 3735, "▁bowl": 3736, "не": 3737, "wealth": 3738, "stairs": 3739, "▁accid": 3740, "▁dynam": 3741, "▁Angel": 3742, "rimary": 3743, "▁aggre": 3744, "▁dumb": 3745, "▁philo": 3746, "hicago": 3747, "ж": 3748, "μ": 3749, "▁roof": 3750, "▁cream": 3751, "▁Life": 3752, "▁Mel": 3753, "▁bang": 3754, "▁Fuck": 3755, "▁pipe": 3756, "cogniz": 3757, "Decemb": 3758, "▁magn": 3759, "▁robot": 3760, "Street": 3761, "vulner": 3762, "known": 3763, "▁Port": 3764, "▁Repub": 3765, "κ": 3766, "lik": 3767, "gazine": 3768, "dvance": 3769, "▁crap": 3770, "▁ackno": 3771, "erform": 3772, "▁epi": 3773, "▁input": 3774, "▁ghost": 3775, "France": 3776, "▁trem": 3777, "sample": 3778, "▁loose": 3779, "monstr": 3780, "ث": 3781, "levant": 3782, "ncient": 3783, "▁Three": 3784, "facing": 3785, "ח": 3786, "ั": 3787, "▁pause": 3788, "lawyer": 3789, "ल": 3790, "▁chose": 3791, "hopify": 3792, "▁annoy": 3793, "reduce": 3794, "▁Franc": 3795, "▁decla": 3796, "▁punch": 3797, "ô": 3798, "ladies": 3799, "▁simul": 3800, "ول": 3801, "▁rose": 3802, "preach": 3803, "sugges": 3804, "ह": 3805, "alysis": 3806, "▁Tony": 3807, "▁acco": 3808, "▁circu": 3809, "*": 3810, "▁Kevin": 3811, "latest": 3812, "υ": 3813, "dustri": 3814, "pret": 3815, "▁embar": 3816, "▁feder": 3817, "▁admin": 3818, "apolog": 3819, "▁virus": 3820, "injury": 3821, "rtists": 3822, "▁radia": 3823, "▁drum": 3824, "debate": 3825, "▁heavi": 3826, "ست": 3827, "▁licen": 3828, "▁Biden": 3829, "corpor": 3830, "▁CEO": 3831, "fluenc": 3832, "char": 3833, "▁Ryan": 3834, "reserv": 3835, "▁steel": 3836, "▁DJ": 3837, "▁adopt": 3838, "ام": 3839, "ק": 3840, "▁swing": 3841, "▁geo": 3842, "▁blank": 3843, "▁corpo": 3844, "▁Since": 3845, "ribute": 3846, "ferred": 3847, "nicate": 3848, "▁Jones": 3849, "▁assis": 3850, "attach": 3851, "llabor": 3852, "▁chart": 3853, "satisf": 3854, "▁wound": 3855, "output": 3856, "้": 3857, "loyees": 3858, "height": 3859, "ircuit": 3860, "strain": 3861, "▁gay": 3862, "ldier": 3863, "▁strip": 3864, "▁excep": 3865, "▁ruin": 3866, "▁permi": 3867, "ко": 3868, "▁mouse": 3869, "titute": 3870, "▁spell": 3871, "clinic": 3872, "▁High": 3873, "▁unusu": 3874, "ية": 3875, "म": 3876, "\"": 3877, "▁fifth": 3878, "ро": 3879, "highly": 3880, "tural": 3881, "▁objec": 3882, "▁Could": 3883, "ñ": 3884, "antasy": 3885, "fessor": 3886, "▁abuse": 3887, "▁maxim": 3888, "▁alien": 3889, "▁Steph": 3890, "forced": 3891, "redict": 3892, "▁victo": 3893, "▁Ukrai": 3894, "ı": 3895, "▁está": 3896, "▁snap": 3897, "secure": 3898, "decent": 3899, "ojects": 3900, "▁vibe": 3901, "▁ymddy": 3902, "praise": 3903, "▁slave": 3904, "balanc": 3905, "▁Play": 3906, "▁plot": 3907, "▁sweat": 3908, "mobile": 3909, "horror": 3910, "uthent": 3911, "rofile": 3912, "▁nigga": 3913, "▁anima": 3914, "▁Blue": 3915, "arrest": 3916, "bubble": 3917, "tempor": 3918, "acting": 3919, "▁Jason": 3920, "rystal": 3921, "▁twist": 3922, "▁devil": 3923, "▁الم": 3924, "twenty": 3925, "ymptom": 3926, "▁vaca": 3927, "crying": 3928, "▁Wh": 3929, "diagno": 3930, "cruit": 3931, "▁sauce": 3932, "Martin": 3933, "▁hypo": 3934, "branch": 3935, "آ": 3936, "q": 3937, "پ": 3938, "ш": 3939, "ז": 3940, "г": 3941, "ς": 3942, "ง": 3943, "х": 3944, "ว": 3945, "η": 3946, "ں": 3947, "ี": 3948, "פ": 3949, "إ": 3950, "ø": 3951, "ί": 3952, "ย": 3953, "ى": 3954, "đ": 3955, "ס": 3956, "λ": 3957, "ค": 3958, "غ": 3959, "ئ": 3960, "ю": 3961, "ज": 3962, "य": 3963, "Z": 3964, "š": 3965, "ג": 3966, "¿": 3967, "ά": 3968, "ό": 3969, "บ": 3970, "我": 3971, "是": 3972, "ล": 3973, "ब": 3974, "έ": 3975, "і": 3976, "–": 3977, "ן": 3978, "ด": 3979, "چ": 3980, "ھ": 3981, "ต": 3982, "ě": 3983, "द": 3984, "ग": 3985, "ž": 3986, "ء": 3987, "ิ": 3988, "ט": 3989, "व": 3990, "。": 3991, "ท": 3992, "ă": 3993, "צ": 3994, "γ": 3995, "ব": 3996, "ã": 3997, "ै": 3998, "$": 3999}, "merges": []}}